-000010000010001
0000001100010011
0000001111101110
-000010001011110
0000001011100101
-000001111111110
-000000111001001
-000001000110010
0000000011100110
-000000111110010
-000001000010000
-000000101001110
-000000101111001
0000001110111111
0000000011111110
-000001000011110
-000000110001000
0000001110111000
-000001101101111
0000001101000110
-000001010110110
0000000101111001
0000001100111000
0000000011110111
0000010000110110
-000000111110010
0000000101000111
0000000100111101
0000001101111110
-000000011001000
-000001101101111
0000001000000010
-000000100110010
0000001111010101
0000001101010010
0000001000000100
0000010001100100
-000000001000100
-000001011111001
-000000001001101
-000001001011101
0000000100011101
-000000111111110
0000000010000000
-000000011101000
-000000111011101
-000000110011011
-000001001000100
-000000010000101
-000000100101111
0000001110011001
0000000001000011
-000000000001010
-000001011010001
-000000100101011
-000010001001001
-000001010010001
-000000010101111
0000001010011001
-000010000011000
-000001110100100
0000010001100011
0000000001010110
-000000101011111
-000001101110110
0000010000100100
0000000011011000
-000001100100010
-000001011111111
0000000011011000
0000010101010111
0000000011100110
-000001010010111
0000000100011111
-000001011000001
-000000100101001
0000000001001100
0000000110000001
0000001111001101
-000000111000110
0000001001001000
0000000111001101
-000001000110101
0000010001010011
0000001010111101
-000001000100110
0000000110100110
0000001001000110
0000000111000111
0000001011111000
0000001000000011
0000000111101100
0000001001100110
0000010110000011
0000010100111101
0000001010110011
0000100001011000
0000001110111011
0000011111011101
0000011001101110
0000010000110111
-000001011100100
-000001001110000
-000011010001111
-000000011001011
-000011100100111
-000001111101111
0000001100100010
-000000100100101
0000000010001010
0000000011110111
0000000011010011
0000000100000000
0000000100010110
0000001111100111
0000000101110111
0000001001001110
0000001111101000
0000001110001011
0000010000010110
0000000111011011
0000011110110011
0000011000001110
0000110000100010
0000101101011010
0000110101101000
0001000101011010
0000011111011011
0000001111001110
0000001001100000
-000000111000011
-000001011100001
-000010110110101
-000001010000010
-000011111101100
-000010100001001
0000000000010110
0000000101111100
-000010001010101
-000001110100101
0000000110100011
-000010001100010
0000010001100001
0000001010000011
0000001000001101
0000000011000110
0000011000011100
0000100011110001
0000011010101001
0000010001110101
-000000001110010
0000011111111100
0000101110010101
0000100100010110
0001000010111010
0000110111011011
0000011000011000
-000000001001100
0000000111100011
-000001011100110
-000001101101000
-000101011100110
-000100101100001
-000111000010010
-000001101100100
0000000000110110
-000001011011001
-000001111110001
-000001100100111
0000000000011100
0000000110110000
-000000001110000
-000000011101000
0000001100010100
0000100101000011
0000011001100010
0000000010110001
-000000011100100
0000001010000011
-000000110001011
0000010110011001
0000001110101101
0000011100101011
0000100101100011
0000011110110011
0000001110100001
-000010100011111
-000010111000100
-000010010001010
-000101001111111
-000101011101001
-000101101111101
-000100111000111
-000000011111110
-000001111000011
0000000000001001
0000000101000100
0000000101000010
-000001001011001
0000000110001111
0000100000011001
0000011011100101
0000010111110111
0000100101001000
0000011110010000
0000011001010111
0000001010000011
-000010001101101
0000000111100111
-000000010010111
0000000011010011
-000000010110110
-000001111100000
-000001011110001
-000000011001001
0000001011010110
0000000100111011
-000000010010101
-000100100111100
-000101101110000
-000110110001000
-000011001101111
-000000001001100
0000001000000100
-000001110000110
-000001110100010
0000000011101110
-000000101110110
0000101100110010
0000101100100111
0000101001110011
0000110001011100
0000001100111010
0000001110010011
0000000001111101
0000001101000001
0000010000010101
0000100101010101
0000010110010010
0000101000111001
0000000111110111
0000001110101011
0000011000010101
0000101010000000
0000001010010001
-000000101101000
-000001110100101
-001001100101010
-001000001001111
-000011001111100
-000010010001000
-000010000011011
0000000011100000
-000001000110000
-000000110101001
-000000000111111
0000110101001110
0000100001001110
0000100001110001
0000110001101000
0000001111101010
0000000011110100
0000000011001000
-000101010110000
-000010010101011
0000001011100011
0000111001100001
0001000000100110
0000110100111011
0000011001111010
0000011010110110
0000011111000100
-000000000000010
0000010010001101
-000000010011101
-001000000000010
-001000000100111
-000110100011000
-000000010011010
0000001101010011
0000000111111000
-000001101111000
0000000101000101
0000001010110001
0000011011010101
0000011000000111
0000001000000000
0000000101010101
-000000101100101
-000010000001111
-000101000010010
-001000001001010
-000110000100000
-000000010100000
0000101001000011
0000110110011011
0000110000000010
0000101001100100
0000010101111100
0000100011001101
0000100101000001
0000001110010100
0000010001100000
-000101001100101
-000111010100011
-000010000111111
-000010001001011
0000000100010011
0000000011011111
0000000010100011
-000000101010010
-000000110100100
0000000110000000
0000010010111111
-000001110111000
-000100111101011
-000100010010111
-000111010011001
-000110111100011
-001000110000001
-001010000110010
-000011000010011
0001001100011001
0001001100010101
0000101010100111
0000100011111010
0001000100110011
0001001001010011
0001000010011001
0000110100001010
0000010100101101
-000000100101011
0000000010000000
-000000010100100
-000000001101101
0000001110110011
0000001101111111
-000000000011101
0000001010010011
-000001001101010
0000000110011011
-000101000111111
-001000010001110
-001000101000001
-001000001011101
-000101101010001
-001101011001010
-001011101001100
-001001110110100
0000011010010100
0001111101111101
0001011000111011
0001011110111100
0000110111010101
0000111011001001
0000110110011101
0001000110110101
0001000001110101
0000001110100010
0000000110010111
0000000110011001
-000000000000001
-000000110010111
-000001001010011
-000000101001001
-000010001110000
-000000101000010
-000000000110000
0000000000111011
-000111000011010
-001001111000101
-001101010111010
-000111111101100
-001010101110011
-001110110100011
-001100100110110
-000110101111110
0000111110001000
0010000010110011
0010001000011110
0001011001001001
0000110000100101
0000101011001010
0000100110011011
0000011110001111
0000000100000010
0000000000011100
-000001110011100
0000001111101011
-000000011110100
0000000101000000
-000001010110000
0000001101100011
0000000010100101
-000001100100011
-000010010100100
-000000101111010
-000110000001101
-001010000001010
-001001010000010
-001010111100100
-001100110100010
-001101100011000
-001010010111111
0000000110010010
0001010100011001
0010100000111111
0010000111100100
0001000110101000
0000011010011100
-000001100010010
0000000101001000
0000000100100010
-000011000000101
-000100100000111
-000001100001110
-000010111100011
-000000001001000
0000001110101011
0000000011101001
0000000000100111
0000010001100010
0000000011111011
0000001010100011
0000000110000111
-000011000011001
-000110001000010
-000110101100111
-000111100100011
-000111100001111
-001001110000010
-000011101001011
0000110001010010
0010010010000101
0010011111010001
0001101100001101
0000110000101110
0000001010111011
-000001011001010
-000001011110100
-000011100101001
-000001001010110
-000000110011100
-000000100101010
-000001001000001
0000010101011111
0000000101000000
0000001101100010
0000000110001100
0000000100101111
-000000001001101
-000000111010110
-000001000111001
-000010100000000
-000011001111010
-000100100101011
-000001100101010
0000000111101101
0000001110011100
0000100001111010
0001010011110111
0010011101110001
0001111010100111
0000110100000011
0000000110011100
-000010000011010
-000010010011100
-000011100000101
-000011110111100
-000001000011111
-000001001110000
-000010110110101
0000001001001110
0000011101010111
0000000010000000
0000000001111100
0000000101011010
0000001100101110
0000001100010101
0000010001101101
0000000100101100
-000100000100100
-000110110011001
-000100100100010
0000001010101001
0000100100101010
0001001101010010
0001011001011011
0010010010111010
0010000001010000
0001101100000110
0000100000011100
0000000011000100
-000101000110110
-000010111100110
-000001100111010
-000010111010111
-000001011101010
-000000111000111
-000001001000101
0000000110110111
0000001010011110
-000000001110011
-000001001100011
0000000110100110
-000000100101011
0000000011011100
0000010001110011
0000010011011011
-000000011000000
-001000000010111
-000011100100011
0000010000011010
0000101110011100
0001001101101111
0001001001001110
0001100101110100
0001010011111000
0000011101110110
-000001101101101
-000010110111101
-000001111111001
-000001001000000
-000011000000101
-000010101011010
-000010101010110
-000000101001101
0000001111000010
0000011011000011
0000001010111001
-000000101011101
-000000000111111
0000000000110110
-000001001111110
-000000000101001
0000011001111101
0000001000110011
-000000110100001
-000101011011111
-000010101110101
-000001000011010
0000110001111110
0000110110001100
0000010000010111
0000000110111111
0000001011111011
0000011010001110
-000000101001101
0000001010011101
0000001101101011
0000001000000001
0000000111000001
0000001101011101
0000001010011010
0000001111111110
-000000000010100
0000010110100100
0000000110010000
0000010011110011
-000000101011111
-000001001010001
0000000000110111
-000001001110010
-000000100110011
0000001100110100
-000000000010000
-000001110001100
0000001100000010
0000001100010001
0000001111101000
0000000100101111
-000000000111001
-000000011011001
0000001000010010
-000000010110100
0000000000111100
0000000000000001
-000001110001011
0000001110110111
0000000001101101
0000001011001001
0000000011000100
-000000101000011
0000000011110010
0000001111011110
-000000111110011
0000000010111010
0000010001101100
0000001011110101
-000001110110110
0000000111101110
0000000100000000
0000001110111001
0000000011001010
0000010110101010
0000011011011110
0000011011110000
0000000010011101
0000000101011000
-000000000101000
0000000110011001
0000000000000111
0000010001010000
0000010100000100
0000011001101100
0000001110001110
0000011111010011
0000001001101110
-000000111000100
0000000110010010
0000000100101000
-000000000011111
-000000010101100
-000000101000011
-000001001000001
0000001111000010
0000001011101001
0000001101111010
0000000000110010
0000000111001111
0000000111100001
0000100010011000
0000011111100110
0000010110101000
0000100010010100
0000001100010011
0000000110011001
0000000101111010
0000001110110001
-000000011111111
0000011101111110
0000001111101000
0000000010101001
0000010010001010
0000000101011100
0000001101100000
-000001011110100
0000001010010011
-000001001111111
0000000100111011
0000010001100011
0000000010011010
0000001011100010
0000001110111100
0000001101000100
-000010001001111
-000000011011011
-000000010000110
0000010001100100
0000001010000000
0000000001001000
0000011010000111
-000000111101011
0000000101110110
-000000001111111
0000000001010011
0000010100111001
0000011110101100
0000101011011110
0000011010000101
0000010100100010
0000001011110100
0000011000011010
0000010001010000
0000000100110111
-000001000101110
-000001011011101
-000001100101011
0000010000000010
0000000101111111
-000000001000001
-000010001000100
0000001111100011
0000000011011011
-000000100101110
-000001101001111
0000001101001101
0000000111001111
-000010100011011
-000000100110111
-000000001111110
-000001101001011
0000000010011110
-000001101100000
0000000111000111
0000010000000100
0000001001011000
0000011100010000
0000100001001001
-000000100011100
-000001010111001
-000001010101011
-000001101011000
0000000101011110
-000011000100001
0000000011100100
0000000110111000
0000000010001101
0000001010010000
-000000111111010
-000001101001000
0000000001001110
0000010001011011
0000001110011010
0000001101011110
-000010010001011
0000001000010000
-000010000011010
0000000111100001
-000001101111001
-000001011001110
0000000001100001
-000010100111011
-000000110101110
0000000110001111
0000000110111100
-000001011010001
-000000001100011
-000000010010100
0000000100101111
-000000111001100
-000000001111000
0000001011011100
0000000100110010
0000000000111001
0000001100111000
-000000100001000
-000001010001001
-000001100001110
0000001100110101
0000001000101010
0000010000101110
0000010001001101
-000010010111001
0000001000011000
0000001101101001
0000001000000010
-000010000100010
0000000001101010
0000000100111000
-000001010100110
-000001011111011
0000000010000111
-000000111000011
0000001110100101
0000001110101011
-000001001111011
-000010001000010
0000000111100000
0000000100000010
0000010000010101
-000000010010101
-000010001001101
0000001000010010
0000000111000001
0000001011100011
0000001101101011
-000010000100110
-000001111010111
0000001110111110
-000000101010001
-000000001000000
-000001001011001
-000000100100001
0000000000101110
-000001001101010
0000000110010000
-000001001001010
-000001110101100
0000001001011111
-000000101010001
-000001011110110
0000001100000000
-000001010100011
0000010000001000
0000001110110000
0000001110011000
0000000100111110
-000001110000010
-000010001101000
-000001111010000
0000000100010100
0000001000010101
-000001110100000
