1111111001110001
0000010010000011
0000001011001010
0000010010000011
1111110110001011
0000001110111011
1111111011011001
0000001100110000
0000000001000111
1111111001111011
0000000101011100
1111110110100101
0000001110110110
1111110101100100
0000010001110011
0000001101010111
1111111101101111
0000000100001011
1111110110110111
1111110000010100
1111111101111101
1111110000110111
1111110010110110
1111111000100001
1111101111000110
0000000100101000
1111110010110010
1111111010011010
0000001111100110
0000000100101110
0000000111111100
1111110000011100
0000000110101010
0000001011100100
0000000110100000
1111101101101111
1111111111011110
0000000000011010
0000010001011001
0000001111111111
1111111010100111
0000001001110110
0000000111010001
0000001011010111
1111111001001101
1111111100010100
1111111011100101
0000000111010011
0000000111111101
1111110111100111
0000001110001100
0000001001110110
1111110111100010
0000001101001010
0000001001110010
0000001000001010
0000001011100111
1111110001010001
0000001001010011
1111110100000110
1111110000110011
0000000001100110
0000000101101110
1111110010101001
1111101111011110
0000001111011000
1111111111100100
1111101111110101
0000001010101010
0000000111100000
1111111001010101
1111111101000001
1111111011101100
1111110011000100
1111110011010111
1111110011111001
0000001101011010
0000001011110111
1111110100110010
0000001000001110
1111110110000110
1111110011110001
0000000100011010
1111111110001010
1111110100001101
1111110001011010
1111110001111110
0000001000000010
1111111001011011
1111110111011001
1111111110100110
1111111011100111
0000000000000111
0000001000000011
1111111101000010
1111110000001000
1111110011111110
1111110100101000
0000000011011000
0000000111001011
1111110000101100
0000001011011011
0000001001010110
1111101110101000
0000010001101000
0000001111111100
1111111001000001
0000000100011111
0000000011000011
0000001011111000
1111110110100100
1111110111110110
1111111010100010
1111110000000011
1111110111111110
0000001101101001
0000001001101111
0000000011111000
1111111111100001
0000000110010101
1111101101111111
1111111010111001
1111111110111110
0000000111000110
0000010001011111
1111111010110100
0000010000111111
1111110010001011
0000001100110111
1111110001111010
0000000110100010
1111111000010100
1111111110100000
0000001110000100
1111110111000001
1111111011100000
1111111011001000
1111110001100000
1111110110001011
0000000001001111
1111110111010101
0000001101100011
1111111110001110
0000001100111001
1111110001000001
1111111101001100
0000000001001010
0000000000110110
0000010000010001
0000001110110010
0000001010010010
1111111010100010
1111111011000011
1111110010000101
1111101110100111
0000001111100010
1111110000100011
0000001010111010
1111101110110010
1111110011110101
1111111100010001
0000010010000000
1111111011100111
1111111001110101
1111110010001110
1111111000001010
1111111001101100
1111111101010111
1111110000000100
0000010000001000
1111110101111101
0000001001001010
1111110011101101
1111111100000100
1111110110001110
1111110011000010
1111111111000010
1111110001101101
1111110011000001
0000001110111100
1111110100000100
0000000000011011
1111111110000100
1111111010101000
0000000000101001
0000001111101110
1111110101010010
0000001100101001
1111110000111000
1111110011000110
0000000101110101
0000001110011101
0000000011001100
0000000010010101
1111110100111110
1111111110001001
1111110100001101
0000010000110110
0000000110010000
0000001100101101
1111110001110110
0000000110011010
0000001001011000
0000000011110101
0000000101111011
0000000111101001
0000001101011000
1111111001010101
0000000101010100
1111111010010110
1111110001111100
1111110011100000
0000000111011001
1111110101011000
0000000101000001
1111110011010100
0000000001111110
1111110001011110
0000001011001110
0000001110010101
0000000110100001
1111110011110001
1111111111010000
1111110101110110
1111111011100111
1111110100001010
0000001101111111
1111110001100001
1111110010111001
1111110000110011
1111110000101000
1111110100010000
0000001010011010
1111111000110010
1111110010110101
1111110101111010
0000001110010000
0000000010011101
0000001011011010
1111110111101110
0000000111101010
0000000110010000
1111110011011011
0000000110111000
1111110110000001
1111111001000001
0000001001101000
1111101110100001
0000000000010001
1111111010010100
1111111001010101
0000001100110011
1111111011111100
0000001110011100
0000010000000000
1111110011100011
0000000111000010
0000010000111010
0000000110011011
0000000001111011
1111101110000100
0000001000011010
1111111000111111
0000000010101010
0000000110101111
1111110100100011
0000000001101011
1111110100000000
1111111101011111
0000000010111000
0000000101001001
0000000000100111
0000000110101000
0000000011010110
1111110100100111
0000000101100010
0000000111110110
1111111101110111
0000000110100010
1111111101010110
0000000101001011
0000000001101000
0000001110011010
0000000101110011
0000000000000001
1111110110011110
0000001001110001
0000000101101011
0000000000111101
1111111111010001
0000001111000010
1111110100010110
1111111101110011
0000000110010010
1111101100111101
0000001010110000
1111110110101110
1111110101100100
1111110110100001
0000000010100010
1111110010100001
0000010001010101
1111111000101000
1111110111011111
0000001000011010
1111110101110101
0000000001010001
1111111110011111
0000001101001111
1111110110100010
0000000010111000
0000001011011100
0000000111110111
1111101111001000
0000000010001101
0000000001110100
1111111000100011
1111111111011111
0000000110010101
0000001010011100
1111111011011001
0000000010001101
1111101101001100
1111110101011010
0000010000011110
0000001100110110
1111111111011000
1111111111011001
1111110010011001
1111111110100100
1111111111010000
1111110001100001
0000000101011100
1111111111001010
0000001100110101
0000001101011100
0000001010111000
0000000111000110
0000000011010001
0000001000001110
0000001110001101
1111111100011011
1111111011111000
1111110100110110
1111101111010101
1111111000011010
0000000011101010
1111110000001100
0000001101111100
1111111111101010
0000001111100100
1111111010000010
0000000101001000
0000001100111010
1111110011011101
0000001000010010
0000000110110000
1111110100001111
1111111111110100
0000001101010110
0000010000010110
0000001111000110
1111110001010010
1111101110010011
0000001100110100
1111110111110110
0000000101111000
1111110011100010
0000001010100101
0000000010010101
1111111100001010
1111110101010100
1111110011101101
0000001110010010
0000000100000101
1111110110011001
1111111101100001
1111110101010111
1111110000111111
1111101110000111
1111110000111110
1111101110110111
1111110011100100
1111110110101111
1111110001110000
0000000010111111
0000001011000001
0000000101111110
1111101101101111
0000000111000011
1111110011011010
0000000110110010
1111110111110010
1111110000110101
1111110101110110
1111111100100100
0000000010100000
0000000100100111
0000001001101111
1111111010111010
0000001101001111
0000000001010001
1111101111011100
0000010000100100
0000001110111010
0000000100111111
1111111101001001
1111110011011001
0000001011011011
0000000000100010
1111101110001010
0000000100011001
1111110100001111
1111111000110110
1111111000110101
1111110000111010
0000001111000110
0000001000010001
1111111110111110
1111111110101011
0000000010111101
1111110010111011
1111110101101100
0000000110011010
0000001010111100
1111110100101101
0000000000101010
1111111111100011
0000001001101000
1111111010110111
1111110001001001
0000000000001001
1111110000001100
1111111100110001
1111110010110101
1111110101111101
0000001110000010
0000001101010110
1111110101011011
1111110010100110
1111111111010011
0000010000101101
0000001110111111
0000001011110111
1111110010011010
1111110001010010
0000001100100001
0000001001010111
0000000110100011
0000000101011010
1111110001011111
0000001110010000
0000000110100110
0000000110100111
1111110000011101
1111111111001011
1111111100001010
1111110100000000
0000000001110100
1111111101111100
1111110010100000
1111111100011101
1111110101011110
1111111100000110
0000000011111001
1111111001011111
1111111111100101
0000000001011111
0000000111010110
1111101101111011
1111111011011101
1111111011100011
0000001110011001
1111110100001110
1111110000011101
0000000011101111
0000010000010101
1111101111001101
1111111010110000
0000001000010010
0000000111101111
1111111111000110
0000001101000011
1111111000011110
1111101110011110
0000000010000101
0000001100111010
1111111010000010
1111101111101110
1111110000110111
1111111000000010
1111110011010101
0000000011000011
0000000000010110
1111110110110000
0000001111010001
0000001101010110
1111110101111101
0000001000111110
1111101111010010
1111110101010101
0000001101101011
1111111010111110
0000000101101000
1111110111011111
0000001110101110
0000000010101100
0000001111011010
0000000010110011
0000000110010010
1111110101000111
1111111010000111
1111111101000010
1111110111101111
1111110100101011
0000001010011010
0000000111000011
1111110111100010
1111111010000000
0000001100010100
0000000010000100
0000000101010111
1111111000111101
0000000110110001
0000000101100110
1111110111101000
1111110100011110
1111111111111010
0000001000011010
0000010001011111
0000000110100011
1111110000110100
1111111111000110
0000001000110000
1111110110001000
1111110000101101
1111110011110001
1111111100000110
1111101110000010
1111110001111101
0000001011001110
0000000110000101
0000001110000010
0000000000001010
1111110011001111
1111101101100101
0000000100010011
0000000100111010
1111111110111011
1111101110110010
1111110000110010
1111111100101101
0000001011011001
1111110011000110
1111111011110000
1111110111000111
1111101101110101
1111110101101101
1111110001011001
1111110111000011
1111110000110001
1111110011000001
0000000101010111
0000001011101100
0000010000111111
0000001000110001
1111111000111100
0000000001111100
0000000001111110
0000001001101100
1111111000111010
1111110000011000
0000001001110100
0000000000110011
1111110001100111
1111110000111000
1111101110011001
0000001111101100
0000001011011010
1111101110111011
1111110000000101
0000000100000110
1111110110111101
0000000011110101
1111110010001000
1111101101101111
1111111001100101
1111111110001011
0000001100101001
1111111100010011
1111101111001010
1111110010110010
0000000100010011
0000000001110100
0000001010001100
0000000000010111
0000001001110011
0000001001001010
1111110010010010
0000000101110101
1111111101100100
1111111000001101
0000000100100101
0000000100110111
0000000001011000
1111111101110010
1111110011101101
1111110101100000
0000001100101011
1111110001000111
0000000110101010
1111101111100101
0000001011111011
0000010000000011
1111111110001110
1111110010001001
0000001010000111
1111110110100000
1111101110011110
0000000000101010
1111111000001001
0000001111111011
0000001100000110
0000001111010011
0000001011011001
1111110101011010
0000001100011110
0000001110110001
1111111101110000
0000001111110000
1111111111001011
0000000000101011
1111110001001001
1111111100111110
0000000110010100
0000001100110101
1111101110111011
0000000111011010
0000001110111011
1111111111111001
0000001110011101
1111111000110101
0000000011010000
1111111010011010
1111111100011110
1111111001100011
1111111001101100
1111101111110010
1111101110000111
1111111100010110
1111101111110000
1111111000000110
1111111000111100
1111111001111010
1111110011101011
1111111110101100
0000000001110100
1111101110011110
0000010000010011
1111101101010100
0000000001001011
0000000010011101
0000000111111011
1111110010111010
0000000101110010
1111111110110001
0000010001010011
1111101111000001
0000000000010101
0000000100010011
0000001101101010
1111111011111110
0000000110101111
1111110111101100
0000001001111000
1111111100001001
0000001101010010
0000001000111100
1111111100100011
0000001101101100
0000001110100011
1111110101000111
1111101111001000
1111110100110001
0000001011110100
1111111100100101
0000001010010010
0000000111110010
1111111010001000
0000001111100100
1111111111000111
0000001100011010
1111101111110000
1111110010110101
0000000000110101
0000000000011011
1111110000110000
1111110111101011
1111110001000010
0000001111101100
0000001001000110
0000010000011111
0000000111010110
0000001000111101
1111110100110000
0000010000001000
1111111010101111
1111111001011111
1111111000101001
1111111111100000
1111111011010011
0000010010000000
1111110100101001
0000000110111000
0000000100110010
1111111111101101
1111111110010001
0000000011111010
0000001001111100
1111111011010110
0000000010010011
1111110110100011
1111110101100110
1111111111010110
0000001011111100
0000000000110110
0000000001111000
1111111010100100
1111111011111000
0000001010100111
1111110101100111
1111111101011101
0000000111101010
0000000010101111
1111110100001011
0000001111110100
0000001111000001
0000001100110111
1111110001110111
1111111101110110
1111110001010010
0000000111011000
1111110100000100
0000000111001011
0000001000011111
1111111000101000
0000010000011100
1111110011001111
0000000100110100
0000001001110110
1111110110111010
0000000100001111
1111101110111000
1111111010000010
0000000000011001
1111111001011111
0000000110101001
0000000000111011
1111111000101100
1111111011001011
0000000010100100
0000001001101100
1111110000001000
1111111000011100
0000001110000010
1111110011100001
0000010001001101
1111110001011010
0000001110101110
1111110001000111
0000000011110001
0000001011011110
1111110111001000
1111110001010100
0000000011110010
0000001000110111
1111111110101000
1111111011111100
1111110110011000
0000000101101111
0000001111110101
1111111101001100
1111110110001000
1111101111001101
