0000001100010000
-000001010111011
-000001011110101
0000000010010010
0000000011101010
-000010010000110
-000000110011010
-000001011000000
0000001100101000
-000000101111100
0000000010010001
-000000100010010
0000001100001000
-000001111010101
-000001101110001
-000010001011111
-000001000111110
0000000001010010
-000001010100101
0000001001010111
0000000110000100
0000000100100000
0000010000000110
0000000101110111
0000001101100110
0000010001101111
-000010001110101
0000001011100101
0000000000000110
0000001000111110
0000001100000110
0000001101110010
0000001010110111
0000001101100100
-000001010000010
-000010001011111
0000000101001101
-000010001011100
0000001001011011
0000000000100000
0000000001100111
0000000110001000
-000000100111100
-000000111111010
-000010000101000
-000001101110111
-000001101000101
0000000010010101
-000001011101000
0000000011101111
-000010001001100
-000001100111100
0000000110011011
0000000011101000
0000000000111110
0000001101000100
-000001111001010
0000000011111011
0000001001101001
-000000011111000
0000000111010100
0000001111011011
-000000001111111
-000000011111010
0000001100000111
-000010001110000
-000001000011100
-000010000111101
0000001011011111
-000001010010110
-000000010000101
-000000111111100
0000000011111011
-000000100001010
0000001111101111
0000000010111110
-000010001100110
0000001111000000
-000001010101111
0000001011010010
0000000111001101
-000000101011101
0000000011110111
-000000100100010
0000000010110001
0000000111110000
0000001001100011
0000001100110000
0000001100110000
-000001001100010
-000010001110101
0000001001111110
0000001101010100
-000010000001001
0000000011001100
0000000011110111
-000010011000001
-000010001110101
0000001110000011
-000001010000111
0000001001110011
-000000001010010
0000000110010011
0000000010001100
0000010000000110
-000000001001011
0000001110110101
-000000000100100
0000001110110110
0000000100110101
0000001010100010
-000001001011001
-000000100111100
-000000101010010
0000000111111010
0000000111010111
0000001101010101
0000001101111101
0000001001011101
0000000100100000
0000000111010000
-000001011011000
0000001001010010
0000000001110100
-000001110101011
-000000111010101
-000000100100011
-000000110101001
0000010011011010
0000001110101001
0000000110110111
-000010011100010
-000011100000001
-000010001001101
-000011000000110
-000000010010111
0000010010101101
-000000011010100
-000000111110111
0000001011001011
0000000011101000
-000000100110010
-000000100101110
0000001000110010
-000000001011110
0000001110100011
0000010100111000
0000001100011000
-000001000101100
0000001001010101
-000001000111011
0000010001111101
-000001110111101
-000000100111101
-000010111101100
-000010001010111
-000010010100101
-000001010101000
-000001100111110
-000100101000010
-000001111011101
-000011110000100
-000001100001110
-000000000010010
0000001111101110
-000000101110111
0000010000110101
-000000110000000
-000000000011001
-000000100111110
0000001111000110
0000001101011000
-000001011000000
0000011010110100
0000001100110110
0000001101100100
0000001001101011
0000010001101000
0000100111001011
0000110100110000
0000011011011101
0000100011001100
0000100101101010
0000111011010011
0000110010010000
0000111110001011
0000100111110000
-000000000101111
0000010101010010
-000000100001010
-000001010010101
0000010011110101
0000010100110001
0000001101000111
-000000110011110
0000000000101111
-000000011111010
-000000001001101
0000000010011100
-000001101000100
0000001000100011
0000001010000000
0000010110110010
0000011101110010
0000100001001110
0000111100011010
0000110010101111
0000111100101110
0000110111110111
0000101000010100
0000111001110111
0001010111111011
0001010101110101
0001001110110101
0000111000001100
0000110110101000
0000100011000100
0000100000101111
0000010010011110
0000010011101010
0000101010111001
0000011111101101
0000001100111110
-000001001101111
0000001100001100
-000001110111000
0000010011110111
0000010011110100
0000001001000100
0000010001010100
0000011101010001
0000010011101000
0000011010110111
0000100010110100
0000010101100011
0000100100110001
0000011010101101
0000110010110010
0000110011000010
0000111001000110
0001000101011101
0000110010111011
0001001101101101
0000111011000010
0000100101000000
0000100011010001
0000011010010010
0000101110001111
0000110000011100
0000010110110110
0000010100010001
0000001110101101
-000000101101101
0000000111110101
0000001010101111
0000001101100011
0000100001010100
-000000000000001
0000000000011111
0000011101101101
0000010101011101
0000001011000010
-000001000100001
0000000011001111
0000010010101001
0000101011000100
0001000010100001
0000110001010011
0000101110101000
0000111101011000
0000100111001100
0000110010100100
0001001001110001
0001000100010011
0001000000000011
0000111011000010
0000110010010110
0000101011010111
0000001101100101
-000001011001000
-000001110011000
0000001101111011
0000000101010000
0000001101100110
0000000101110100
0000000001101000
0000010000000101
0000000111011101
-000000001011111
0000000100011001
0000001011111000
0000001000010011
0000100101010001
0001010110101000
0001001011100101
0000101110111011
0000111110010110
0000100001100000
0000110001000100
0001001010011000
0001010011010000
0000110010100011
0000111111100011
0000110000000101
0000101111111010
0000001000111010
0000001110111100
0000010010011100
-000000011100011
0000001111001000
0000000001101001
0000011000010000
-000000000000001
-000000011100000
0000011011101100
0000101101010011
0000011110010011
0000001100001011
0000010011011111
0000110010000100
0001000101111110
0001111010000011
0001001001000111
0000101100100001
0000100000000110
0001000011000101
0000110101110011
0000100101100100
0000110011011001
0000010110111101
0000101001100001
0000101011001010
0000010001111000
0000011010010100
-000001011000011
0000010000011110
-000001100001011
0000010010011000
-000000001101111
0000001000000011
0000001111001101
0000101001010101
0000101100010110
0000100011100100
0000101101100111
0000100010111111
0000101101101111
0001000010110101
0001010011110100
0001001101101110
0000101101110111
0000001100010100
0000010111011011
0000100001101011
0000110010110001
-000000000100101
0000000111110000
0000001000110010
0000000101110110
0000011010110011
-000000011001010
0000010001010010
-000000110001000
0000001011111000
0000010001000010
-000010000100010
-000000000110011
0000001101011001
0000001000000111
0000011010011110
0000101001001000
0000100010111110
0000011011111000
0000011101101100
0000111010101000
0000100100100101
0000100101101010
0000001010111100
-000010101100110
-000000011110000
0000010110101000
0000100011100001
0000010000010001
-000001111010111
-000010101110101
0000001110100000
0000010010001100
0000010111100000
-000000100111011
-000000001011111
-000001100100100
-000010010000111
-000001000110000
-000001101110011
0000001100100101
0000001111001110
0000001001111000
0000011100111110
0000000110111101
-000000101001100
0000000010010000
-000000010001101
0000010001011101
-000000101010110
0000000111111011
-000011110011100
-001000010010000
-000100100111011
0000000000110110
0000011111101101
0000101100000001
0000100111111000
0000010111110010
0000011111011010
0000001111010110
0000010001011010
0000000011111010
0000000010000011
-000000100010101
0000000111010110
0000000100000011
-000010000000101
-000001101001100
0000010000100111
-000000110001001
0000001110001010
-000001001100001
-000001100101011
-000101110001111
-000011101101001
0000010011010011
0000000100110000
-000011110000010
-000101000100110
-001011111101000
-000110110101111
-000010010110110
0000001000111010
0000110000001110
0000110000001100
0000110111010101
0000111010000001
0000111101010000
0000010100101010
0000010011001000
-000011110011110
-000001111111110
-000001100110100
0000001111000011
-000000000101111
0000001111010000
-000000000011111
-000000010010010
-000000111101101
-000101101010101
-000110010110100
-000011011111100
-000001101101010
-000011011101100
-000011110000000
-000011111010011
-001100001101001
-001110010011100
-001010001000110
-000110101011101
0000011011000110
0000101011110001
0000110101001001
0000100100101100
0000101011011100
0000010101111110
0000011000100011
-000010011101000
-000100110000101
-000001111110000
0000001100101011
-000001000110110
0000001001110110
-000000110001010
0000010000010111
-000000011111000
0000000010001111
-000001110000000
-000010010101111
-000011001111001
-000100101010011
-000111010100011
-001000011010000
-001010101001010
-010000111110111
-001111000101000
-001000111001101
-000001110011110
0000100010010101
0000100111011111
0000111000010001
0000011101100100
0000101110100101
0000010011101010
0000001110011010
-000100011010011
-000100111101101
0000000011110111
0000001111101100
0000001011100010
0000010010010001
-000000111100011
0000001111010011
-000000011100110
0000000101100101
-000001000010111
-000001001100011
-000001110101101
-000001010011001
-000011011101001
-001001100000011
-001011111111010
-001101000010100
-001011011010110
-000100110111101
0000010001111011
0000110100110110
0000100101100100
0000100001011011
0000010011111111
0000011001001100
0000001110110011
-000010111000001
-000011100111101
-000001011101100
-000001101010101
0000001000011011
0000000101110100
0000000010011111
0000001000100001
0000011011010100
0000011000000011
0000000000110010
0000011010010111
0000001011111100
0000011000101110
-000001010100000
-000000010101001
-000101101111010
-000011110101100
-000111100010000
-000011001000111
0000000011011011
0000100001110011
0000011111100011
0000101110000000
0000110010100110
0000011111101000
-000000001111100
-000010110111111
-000010110111001
-000011010100110
-000010100001001
-000001001000111
0000001111011011
0000000101111111
-000001001101100
-000000110110011
-000000001000001
0000001111101110
0000011011001010
0000011010010101
-000000101101111
0000001101100001
0000100100101001
0000000001111111
0000001001011000
-000000011100111
0000000100000100
0000011010011011
0000001100001000
0000101110100000
0000011100001100
0000010011111110
0000000100101110
0000001100001000
-000001001100110
-000010000110101
-000110100011010
-000001110101111
-000010011010111
-000001011111001
-000010001101110
0000001110000000
-000001101010000
0000010001000100
-000000010110110
0000001010001100
0000001110101110
0000001111010110
0000001101000101
0000000110110000
0000001000001001
0000001000011101
0000000101011101
0000011010010001
0000101000001000
0000011001010010
0000110001000110
0000100111001110
0000011000000110
-000001111000100
-000011111010001
-000001110010101
-000100101000101
-000011110100001
-000110001110110
-000001110000100
-000010011110001
0000000011011010
0000000100000110
-000001101010111
0000010001110001
-000001001000010
-000001000100100
0000000110011100
-000000000110101
0000001111101110
0000001110010110
0000000010011101
0000000000011000
0000011010111011
0000110011001100
0000110110101001
0001000000000010
0001001010101010
0000110011101011
0000101000111010
0000001001111101
-000011110000111
-000011001011100
-000011111010100
-000100000010110
-000100111110011
-000010111100000
-000011000110101
0000000110001010
0000010000110100
-000000111111001
0000010001001110
-000000111000111
-000000000010010
0000001001000011
0000011011101001
0000010100101001
0000011111010000
0000010000011101
0000011000101111
0000101011101101
0000100011100100
0000110111110110
0001001101111111
0001010001010111
0001000110100111
0000100100101100
0000010111100001
-000000011111101
-000101001110011
-000011010111011
-000011000011110
-000101101111011
-000100001100010
0000000110001011
0000001010111110
-000001011111010
0000001100000010
-000001101010110
0000001101011011
-000000110100011
0000001010010110
0000010011100000
0000011000000100
0000001111001110
0000100001000000
0000101001010000
0000111100101001
0001001001000110
0001001001111001
0001001010100011
0001011001101010
0001100000111110
0000110100110101
0000011100011110
0000001111011111
0000001111101000
-000011000101101
-000010010100011
-000010010110100
0000000000100011
-000000110100100
0000001001001101
0000000010000100
0000000011011001
-000000101001100
-000001011111110
0000000011001100
-000001101111010
-000000101001001
0000001001101100
0000010100100101
0000010111100010
0000100000100000
0000100011110011
0000100100001011
0000101101101111
0000110011100011
0001000010011011
0001000100001001
0001000001010011
0000111011110101
0000101101011100
0000101010011000
0000011100100010
0000000001001001
0000010001110010
-000000111010001
0000001011101100
0000001110100011
0000000111111100
0000001100110110
-000000010101110
-000010001001011
0000001000011011
0000000110100100
-000000100111011
-000010001111010
0000000010101101
-000001100001000
0000001000001000
-000001101110000
-000000101010011
0000000111011101
0000001110010010
0000001101100110
0000001100111101
0000011011011110
0000001101011000
0000011101010111
0000100001100011
0000011011111010
0000000010111010
-000000011011011
0000001101001010
0000001101000000
0000010010001100
-000001101101011
0000000000001110
0000000011101110
-000001110101010
0000000100110100
0000001101000110
-000001011000100
-000000100100111
0000000100010110
-000000001100100
0000000010001100
-000000100100001
0000000011010110
0000001101101110
-000000010110001
-000001011000110
0000001110000010
0000001001010011
0000001011011101
0000001010100001
0000010101011101
0000000000000101
0000001111100100
0000000001100010
-000001011010001
0000000100101100
-000000011001001
0000001000100111
-000000100010100
0000001010101000
0000001000110111
-000010001011000
-000000010001011
0000010001000111
