0000001101100101
1111101110100000
1111101110101000
0000000011000101
1111110101110011
1111111101111111
0000001110110101
1111110000110100
0000001101011110
0000010000001000
0000001010000110
1111101101111010
1111101111000011
0000010001010010
1111110110100101
1111111001110100
0000001111100011
0000000100001000
0000000111000110
1111110011101110
1111111101100100
0000000001001011
0000000010001110
1111111110000110
1111101111110001
0000001011010101
1111110100001011
1111111011110101
0000000100010110
1111111101010001
1111111111101000
0000000101001011
0000001111001001
0000000101011010
1111110111110100
1111110011011110
0000000001101110
0000001110110110
1111111011100010
1111111110011000
1111110101011101
1111110100101001
1111111100001000
0000001111000111
0000010000000100
0000000000011110
1111111111100100
1111101110110111
1111111100000000
1111111010000000
0000001010010111
1111111111111111
1111110011110010
0000000100110010
1111110100001011
1111110001010010
1111110101110011
1111110101001001
0000010001101110
0000001001111100
1111111011000001
0000000111111000
0000010001010011
1111101101101011
0000000011100101
1111101100010001
0000001011010111
1111101100010001
0000000101111111
1111110101110000
1111111011111010
1111111101001000
1111101101111111
1111110111110110
1111101010101111
0000000011110000
1111111001001000
1111111101100001
0000000000110011
1111110100100011
0000000001001010
0000000110000010
0000000010111110
1111111011001011
1111110011101101
0000001101111100
1111101110010001
0000001010111101
0000001000111011
1111111011000110
1111110010001100
0000000101010001
0000001000110111
0000001000001100
1111110101111011
1111111000110001
1111111011110110
1111101100111010
1111101001001001
1111100000011001
1111111101010100
1111111001001101
1111101011001101
1111101010011011
1111111111100110
1111101000001110
0000000001001111
0000001001001101
0000001010101110
1111110101011101
1111110111011001
0000001011001011
1111110100101110
0000000010001111
1111111110010110
1111110000011011
1111111001110101
0000000010110010
0000001000110101
0000000111011100
1111111010010000
1111111100101010
0000001110100111
0000001101000010
0000001000111110
1111111111100111
1111111101011000
1111101101000011
1111011100101011
1111011111101111
1111100010000001
1111100101110000
1111111000010101
1111111010010001
1111100100100011
1111111010100110
1111111101011101
1111110010000010
1111111111110000
1111110001111111
0000001010000001
0000001010011000
0000001001110111
1111111111101110
1111110001001111
0000010010111110
0000010010000100
0000000011110100
1111111101110111
1111111000110100
1111101110110010
0000001001000101
0000001001100000
1111111001000110
1111101100000001
1111001011000011
1110110110000011
1110110000100001
1110011010000100
1110111101010101
1110111000101110
1111001000110101
1111000111111001
1111101001110111
0000000000010001
0000000111111011
1111110100111110
1111101110100110
0000001111101100
1111110101110001
0000001101001000
0000010001001011
1111111100001011
0000000100011101
0000001010011101
0000001010101101
0000000100000111
0000010011100000
0000000100011011
0000100111110010
0000101100111110
0000100001000010
0000101000000011
0000111010010101
0000110001111011
0000010111101001
1111111101001110
1111100011000001
1111011111110010
1111010001100010
1110101100000001
1111000101000000
1111101111100101
1111100101100110
1111110011110010
0000000000001111
1111110001001100
1111111111001010
0000010010101111
0000010100000010
0000010011000010
1111111111101010
0000011000111011
0000001110000011
1111111111111010
0000100101111000
0000110100000111
0001001100001101
0001011100110001
0001111101000000
0010000010100000
0010000110011111
0001110010011110
0001001101101011
0000101010000100
0000011001110001
0000001000101000
1111100001110101
1111001100101011
1110110111101010
1111001010110111
1111011011101110
1111111000011000
0000000011101011
0000001000111111
0000000110100111
1111111110101010
0000000101000100
0000000001110001
0000010100111110
0000010111010100
0000010010110101
0000001111001110
0000110001110001
0000101011011111
0001000110010100
0001010111010101
0001100010000111
0010001010010101
0010010010000110
0001011010110011
0001010100100110
0000111010110011
0000110101010000
0000001010111000
1111111111100111
1111010110101110
1110110100101110
1111000010111000
1111100011010110
0000001001101011
1111111100011010
0000001000111100
1111101111001111
0000001001100001
0000010000110001
0000011000011100
0000010110111101
0000100101110110
0000001100000011
0000100011010000
0000011001000000
0000100110000111
0000110101010110
0000111110010111
0001010110100000
0001111110000110
0010000100000111
0001100100010110
0001001011011110
0000110001000011
0000110101001011
0000100101101000
0000010010000110
1111110110000100
1111001011101110
1111001101111110
1111110001010000
1111111011011000
0000010010010000
1111110110011100
1111111100001011
0000010000010100
0000100001000001
0000011001000111
0000100000101011
0000010000001100
0000011101111011
0000101000111111
0000011111001010
0000111011100100
0000100101000001
0000001001000001
0000101000111011
0001011100111110
0010001100010111
0001110000001101
0001010101011100
0001000010000010
0000110111101010
0001010111010101
0000101001010101
0000011010010000
1111100010111010
1111100011010100
1111100011110101
0000000010101000
0000000000000000
0000010001000011
0000010001101101
1111111101000011
0000011001101111
0000010101110010
0000011000110100
0000010011011010
0000010011000101
0000100111100101
0000101001011111
0000011010001000
0000000011101100
1111001000001101
0000000101111011
0001011010111001
0001100111011000
0001011001100010
0001100000011011
0001100001101001
0001001111100111
0001111011001011
0001010110010100
0000110001100110
1111101011111111
1111100110011101
1111111110100010
0000000110011101
1111110000011101
0000010001001101
0000010011100100
0000001100110100
0000001011100000
0000100000001000
0000101001001110
0000010010001010
0000100110110101
0000010100000000
0000100001000100
1111011111110011
1110111000001001
1101111110000100
1110110010100101
0000110101101010
0001100100111111
0001101101010000
0001010100011001
0001100000010000
0001001001011101
0001010100001001
0000110111011100
0000001101100011
0000000110010100
1111111011011011
0000000011010001
1111110111111101
1111110110000010
1111111100001000
0000000000001111
0000010010100101
0000010100011000
0000011010001010
0000100111011111
0000010101000001
0000001011101010
1111111110000000
1111010111111000
1110101111000001
1101110001011001
1101010000100010
1110101001000000
0000011100011010
0001011110110001
0001100000010111
0001001100011010
0001001110011111
0001001001000001
0001001011101010
0000101110000011
1111110111100001
1111101101100101
1111101111111100
1111111110110111
1111110001011100
0000000010011100
0000001110001101
0000000000101000
0000001001010011
0000011000000010
0000000110001010
0000001110001011
1111100100101101
1111001011110001
1111010011000100
1111000101101110
1110000001001101
1101110010100111
1110000110111011
1111001111010110
0000101001100001
0001011111110101
0001010110101000
0001001000100001
0001001000110100
0000111001111001
0000110001010001
0000001110001100
0000000000000011
1111101011100101
1111101011110000
1111111010111010
1111111100100011
0000010010010000
0000001011110110
0000001011011101
1111110000110110
0000010000001001
1111111000001111
1111100011001110
1111100000011010
1111010010000000
1111000100110000
1110101100111100
1110101011110111
1110101100011000
1110111101100111
1111110111100010
0000101000001110
0001000001011000
0001001010100110
0001001000100011
0001000100100110
0000110111011001
0000100101100101
0000000001101100
1111111110011111
1111110000101000
1111100111011010
1111101110100110
0000010000111010
1111111000010001
0000000100000111
1111110000011111
0000010001101000
0000001010101001
0000000101001011
1111110000111010
1111000101101010
1111000110011111
1111001100111100
1111011000110101
1111100001000001
1111100001011001
1111110101011010
0000101010001110
0000011100000001
0000100100010101
0000101111011111
0000011100001011
0000001110000000
0000010100101101
0000000100100011
1111101110010011
1111100011101111
1111100000100010
1111110111000000
1111110101110001
0000000011001101
1111111001001010
1111111111111100
1111111110001100
0000010001001001
0000010000111111
1111110001001100
1111011111001100
1111001111101010
1110111001101111
1111100000011011
1111111110101101
0000001000110111
0000001011010001
0000100110100000
0000110101111110
0000100010010001
0000010011001001
0000000100100010
0000000011110011
1111101000001000
1111110011111101
0000000101100010
1111110011110111
1111010111101001
1111011111010101
1111100110100100
0000000001101010
1111111110001110
0000000000011001
1111111000101111
0000001110000011
0000010010100001
0000000010000000
1111101001100010
1111011001100110
1110111101110111
1111000101100110
1111001111010011
1111100011101000
1111101011110110
0000001100000100
0000010100001000
0000101000001111
0000101101010011
0000000010000001
1111001101010110
1111101100111011
1111111000001011
1111110011111010
1111110000110001
1111100011010010
1111101101110010
1111101011100001
1111011111100000
0000000111111101
0000001001111001
1111110101011111
0000000011101011
1111110011101011
0000000101011110
0000010001101000
0000000111111000
1111001111011011
1110110100011011
1111001000001100
1110111011001001
1111000101011010
1111011110001111
1111011111001101
1111110000000101
0000001111011010
0000001110111001
1111100010000111
1111001101001110
1111001110011000
1111010111000101
1111101000010100
1111100001110111
1111100010010101
1111100110111000
1111101011101101
1111110010111001
1111101110101111
1111111101011011
1111110111010111
1111110111001100
0000010000101110
1111111001000010
1111110011110011
0000001101010000
1111010101011110
1111010110101100
1110111000100010
1111000111000101
1111000010110001
1111011001100010
1111011111000000
1111110001111111
1111101011001101
1111110001000001
1111011101001001
1111010101101011
1111010001011011
1111010101101110
1111100101010000
1111011110011010
1111001011000010
1111100101111110
1111100101110001
1111110111000001
0000001010111111
1111111111010110
1111111001000010
0000000111011001
1111110110100110
1111111101010101
0000001000001100
0000000110000010
1111111111110101
1111011001011101
1111011010000011
1111011101111000
1111011110001000
1111100111011101
1111100110101111
1111100100000000
1111110001010110
1111111001110010
1111101110000000
1111101011101010
1111101001100011
1111000010100100
1111011100101000
1111011000011011
1111001001001011
1111011001110011
1111110110101110
1111111011011100
0000001100010010
1111111010010001
0000001000001100
0000001100011100
1111111110100110
0000010001100010
0000001011100100
0000000010000001
0000010000111001
0000000110010001
1111011111001111
1111110100110000
0000000001010110
1111110111101101
1111110110101000
0000000000011100
1111101001011101
0000000000011101
1111111110010001
1111101110000101
1111101010110110
1111001101000011
1111010011010001
1111010110111110
1111100111000111
1111110100100100
0000001000000010
1111111110001011
1111110111001000
0000000011110110
0000001100110001
1111101101111000
1111110111001110
0000001111100110
0000000010101000
0000010101010101
1111111110110101
0000011110001001
0000001100011111
0000001111110011
1111111101100001
0000000100001000
1111100110011110
1111111000110111
1111111110110011
0000000001011101
1111110100011000
1111111110100010
1111101000100011
1111100100001001
1111010000000100
1111100000100001
1111100111111001
0000001110011101
0000001101111101
1111111011111111
1111110110111000
0000001111100101
1111110010111111
0000000011111010
1111111100011000
0000001101000001
1111110011111111
0000010000100111
0000100111100011
0000110010111101
0000111011010001
0000100010000110
0000011100011100
0000100000001000
1111111111110111
0000011000011101
0000000000111000
0000000001111101
0000001101100111
0000010011111111
0000000100000011
0000011010010010
1111111101001001
0000100000001101
0000011111100001
0000000100010111
1111110100110111
0000001010101000
1111111110000000
1111111101011111
0000001010111110
1111111100000011
1111111001001010
0000001011110100
1111110010000010
0000001011011010
0000000010001111
0000001111010100
0000111010000101
0001000111010011
0000101011100011
0001000000000010
0001001000100110
0001001010000011
0001000011101011
0001011001110000
0001010001010111
0001000010000100
0001010011010001
0000110100100111
0000111110010110
0000011010000010
0000000001101000
1111111010011011
0000000100101111
0000000000011101
0000000111111001
0000001111111101
1111110101000101
0000000111011010
1111111111001100
0000000100011110
1111110101011001
1111110001100001
1111110101000100
1111110111000001
1111111111000000
0000100110111001
0000101010001010
0000110010101011
0000110010000110
0000110101101110
0000111011010100
0000101101001000
0000111001100010
0000101000001011
0000100110010100
0000010010000110
0000001010111101
0000000001110001
1111111101101101
0000001111000011
1111111001110100
1111110011000000
1111110010110001
1111111101010111
1111111011011100
1111110110010001
0000001111010111
1111111001011001
1111111010011100
1111101111000000
0000010001100011
0000000100001100
0000010001111001
1111111110110101
0000000000010101
0000000101001100
0000000011011001
0000001110110101
0000001010000111
1111111101100110
0000000010110000
0000001111001000
0000000111100011
0000010000000001
0000000110101010
1111110001010111
1111110011100100
1111111111100011
0000001010100001
0000001010000111
0000001010101101
0000001001001110
0000001101010010
