0000000010111000
0000000010011011
0000001001101110
-000001010001001
0000001000111000
0000000101000111
-000000000100100
0000001011011010
0000000001000001
0000000001100111
-000000001110100
0000000010001000
-000000100000111
0000001110100100
0000001111101010
0000010000011111
-000000101100101
0000001100010001
0000000110000110
-000000110101101
-000001111010000
-000000010110100
-000000101000100
0000010010010001
0000001011110011
0000000001010110
-000001000100111
-000001101011000
0000001010110110
-000001001000011
0000001100000010
-000001110101101
-000001000011011
0000000100111011
0000000100001001
0000000110001110
0000001111100111
-000010010011010
-000010001010111
-000001001010001
-000001011001111
0000000100100001
0000001000111000
-000000101110101
-000001110011110
-000001010101110
0000001100001001
-000001100001001
-000001001110100
-000000001111111
-000000001101011
0000001100111000
0000000100101011
0000001111011110
0000000001000110
-000010001000111
-000000010001101
0000000000001011
-000001101100111
0000001101001101
-000000001110001
0000001110001001
-000001110001110
-000001111001010
-000010001111011
0000000001110000
0000001000000010
0000000010111010
-000000001101011
0000000011110110
-000010101010000
-000010101110110
0000000101010111
-000000101001011
-000000010101101
-000000010110010
-000010010010111
0000000010110110
-000001000001011
-000001110011100
0000000000000000
0000001110101000
0000001000100010
0000000010000001
0000001101101011
-000000001111100
0000001110101100
-000001000100110
0000001000101100
0000000011100001
0000001101100010
-000000001000000
0000001000000010
0000001110100110
-000001110001100
0000000111010111
0000011000100101
0000010111110000
0000001010010010
0000011010101110
-000000101110000
-000010001101101
-000000110110100
-000010100101100
-000011000001111
-000001110100001
-000010011010001
-000001010111001
0000001101000110
-000010001101011
0000001001111011
-000001100100111
-000000001010011
-000001111010110
0000010000101111
-000001101001010
0000000001110001
0000010011101111
0000010001101000
0000000010100011
0000010010001110
0000100011010010
0000111101110111
0000111100001101
0000110000100001
0000111101111000
0001000001011111
0000110001101101
0000010111100011
-000001000101110
0000001100110011
-000010110101010
-000001011100001
-000100000000011
-000000111011010
-000001000001000
0000000100110010
-000000000110011
-000000110111001
-000001111101011
0000001011010100
-000001000001111
-000000110100011
0000010001011001
-000000100011101
0000011101110011
0000101001001111
0000110010010111
0000100000010011
0001001100011011
0000111001110100
0001000010110001
0000110101110111
0001000101110011
0000101101011000
0000101000000011
0001000101000110
0000001110001011
0000010010110100
0000001110011110
-000001010000110
0000000101100010
-000000100000001
0000000000000110
-000010110111010
-000000011100101
-000001111011110
0000001101000010
-000000100001111
0000000110000111
0000000110010000
0000001101101000
0000000100011110
0000001011110001
0000011101111011
0000110000101010
0000110001011011
0000100100111101
0000110110011000
0000100001010001
0000110100110100
0000111000010101
0000101000010010
0000111000100010
0000010101010001
0000001110101010
0000011001010001
0000001000011100
0000010110010011
0000000010010011
0000001011011100
-000000100110011
-000001000101110
-000010000101001
-000001000001001
-000001101001000
-000001101110111
-000001000100000
-000000010010100
0000000010100101
0000001001011100
0000101010011000
0000010001101010
0000001001010110
0000001100000001
0000001000100000
0000010100000111
-000000110010000
0000100010100101
0000100000110011
0000110100011001
0000011111110101
0000001101111001
0000011110110111
0000001001010100
0000010000100110
0000011001000000
0000001011111001
-000001001110000
-000011010101000
-000001110010010
0000001000010001
0000001100001011
0000001010010001
-000010001101100
0000001100010011
-000001111010111
0000010011100000
0000001101001110
0000010110001101
0000011000000001
-000001001000011
-000011010110010
-000011111000101
-000001111001010
-000100001011000
-000000101000110
0000000001100010
0000001110110011
0000011111110000
0000010011110100
0000011110011101
0000011101100110
0000100111001101
0000010011100010
0000001101001001
0000010100001001
-000100010111110
-000000111111100
0000000001000000
0000010010001000
-000001010000011
-000000001111111
-000000001010101
-000000111010100
0000001111111001
-000001000111101
0000000001110010
0000000100111100
-000100001101101
-000011011101000
-000011101000101
-000110001101001
-000101100111010
-000110100101011
-000001111010010
-000001011010011
0000011100011001
0000010011101001
0000100001001110
0000010001111111
0000101000101111
0000100001000010
0000011000110101
-000010101001010
-000011101110010
-000000100111111
-000001110000110
0000000001110011
-000010010001011
0000000010011000
0000000110111101
0000000101101111
-000010010101011
-000010100101011
-000010011100011
-000011001100101
-000111001011101
-001000011001011
-001000111100101
-001001011100010
-000101101100111
-000101011011001
-001000000101111
-000010011111100
0000001110001011
0000100011000111
0000101000111001
0000011001100010
0000101100011001
0000000110001001
-000010101101000
-000010001011100
-000101100111001
-000000110010111
-000000111011010
0000000110100101
0000010000011110
0000000100011111
-000000101010111
-000000111111001
-000001010110001
-000001000111000
-000011011100011
-000100110110000
-001000011100001
-001001001100101
-001001010001100
-000100010010000
-000100111100000
-000011010010100
-000100010101010
-000000001111110
0000011101111000
0000001101010000
0000010011001010
0000010100010110
0000001110011001
-000001100001110
-000111101100011
-000111111000010
-000100011100000
0000000101001110
0000000100110111
-000000110011001
-000001011110000
0000001111011011
-000000101000101
-000010000011000
-000001111010010
-000000001100111
-000100100100111
-000111100011011
-001011011010011
-000101000101000
-000011111011111
0000000110000101
0000011011101000
0000101000110010
0000110110111110
0001001000110111
0000111111001001
0000101001011010
0000101011001110
0000100110111111
0000000100010011
-000001101111010
-000110111101001
-000110100101011
-001000000110010
-000001100010100
0000001111111001
-000000000110110
0000000100010110
0000001111011110
-000001100110011
0000001010100100
-000000001111001
-000010110110101
-000110101110100
-000110110010010
-000100010001010
-000100000000000
0000000100111001
0000101000001101
0000100110101111
0001010101101011
0010000100110110
0001110011101011
0000111011011010
0000100110101000
0000111010101101
0000011100111110
0000000101100010
-000100000010000
-001000110001111
-001001000011010
-000101100101010
-000001000110011
0000010001010001
0000000000001000
-000001000010010
-000000111111110
0000000100011111
-000001000110101
0000001110100010
-000001011100101
-000100000110010
-000010011100000
-000010001111111
0000001011111101
0000100011110101
0000100110101000
0001000010011111
0001011101011011
0010001110100011
0001111110101110
0001000001100100
0000110100101000
0000111010111011
0000100001111101
-000001110001001
-000010110000001
-000110010000111
-001001001001000
-001000000101010
-000010010010011
-000000000100111
-000000010010000
0000001110110101
-000000000001110
-000010000100111
0000001010000100
0000001100010101
0000001001011101
-000000000101010
-000001110000100
-000001101110101
0000010000001011
-000000001100001
-000001001100001
0000010011100110
0001011110100110
0001101000111001
0001011110011100
0000111110010101
0000101101000100
0000010011101000
-000000000111001
-000001000101110
-000011000001011
-000001110110000
-000010100111001
-000110011010010
-000011011110101
0000000001010110
-000001011010001
-000001101011111
-000001001111110
-000001101010011
0000010011001010
0000011011000100
0000011010000111
0000001010000100
0000000010111111
-000001000011010
-000100000011110
-000101010011011
-000100100001000
-000001100110110
0000010111011011
0000111001011100
0000111001111111
0000101001100010
0000011010000010
0000101001010001
0000001111000110
0000000011011001
0000000000001000
-000001000101110
0000001010101100
0000000011100001
0000000111001000
-000000000111100
0000001011010111
0000010001011010
-000001011110010
0000001100000101
0000000111101101
0000010110011001
0000100011100110
0000001011100110
0000000010111100
-000000010010010
-000111101010001
-001001111101101
-001010101111000
-001011111111000
-000011111011001
-000010010101110
0000010110110000
0000011101000011
0000110010010001
0000100011010000
0000001011001101
0000100001011100
0000100010001111
0000001111100010
0000010101111000
0000010011111110
-000001010101010
-000001000000111
-000000111011011
-000001101111110
0000001101011000
-000000011010101
0000010001010100
0000100011011000
0000111000111010
0000100111101110
0000011110111001
-000001011011111
-000010110100110
-001001001100100
-001101000110101
-001010000101100
-001000011101101
-000011110100101
-000010111000000
0000100000010011
0000101001010000
0000100111011111
0000101000101010
0000101000010001
0000110101101000
0000111000100110
0000110001111101
0000000101000001
0000000110100111
0000001100010000
0000000001000001
-000000001000010
0000000100101000
-000001110001110
0000000011011101
0000101010110011
0000101011101001
0000111100011110
0000110000111111
0000011111011011
-000010101110110
-000010011010001
-000110110111100
-001011001100110
-001000110010111
-000110001010111
-000000001110100
0000000101000101
0000110100001010
0000101100101101
0000111100100101
0000101101011010
0000110011000000
0000101110011100
0000100111110111
0000100010000000
0000001010101010
-000000000111000
-000000111010011
0000001101001110
0000001011010010
0000001101001101
0000010000110100
0000101010000111
0000110110011000
0000110101000110
0000110110000111
0000101111011011
0000010010111110
-000000010101000
-000100110000001
-000101010010110
-001000100010011
-000111100111100
-000001011000010
-000000000010010
0000010111000111
0000110110000010
0000110010111001
0001000000100101
0001000110001000
0000110001000100
0000100100001110
0000001000001001
0000000000001010
-000001100001111
-000010000000011
-000000011010000
0000000111111110
0000000010011001
-000000100100101
0000001010101010
0000010110110110
0000011110001111
0000100000011111
0000101010110001
0000001010110100
0000001001110101
0000000000100111
-000100111001110
-000111101001100
-000100101001100
-000101000011000
-000010010010001
0000010000001110
0000110100100101
0000111000001010
0001010001010111
0000111111100001
0000110010000111
0000000000011011
0000001011100101
0000000011100000
-000001000101101
-000000011001110
0000001011111111
-000000010001001
-000001010110110
0000000010001111
0000010001000001
0000100100110011
0000100000111000
0000110010011010
0000101000010001
0000001000110001
0000000100011110
0000000000100110
0000000011001000
-000001101011110
-000100001100000
-000010110101111
-000000110111011
-000000001111000
0000111110001111
0001000000010101
0001000110001000
0000101110011010
0000100001001100
0000010000110011
-000000010011001
-000001110111000
0000010011000010
0000000100011001
0000000010011010
0000000101100011
0000000110010001
-000001100100111
-000000001000101
0000001110010010
0000011001100000
0000101010100111
0000001110101101
0000000110010010
0000010101001101
0000001101100010
0000001110101001
-000000010100111
0000001010010000
-000001011011000
-000000110110110
0000011000100010
0000010111111100
0000101100101101
0000100110010011
0000011111001010
0000000100010101
0000001010111110
-000000110111001
0000001001000101
0000000000001001
0000000100000000
0000000010111110
-000000100001010
-000001110111000
0000010010000100
0000010100100110
-000000001101101
0000001110011100
0000011111101010
0000000011111100
0000010101100111
0000101110101010
0000010101101111
0000100110010101
0000010000010100
0000011011000110
0000010011100010
-000001111001100
0000010101101101
0000001010111100
0000011100000010
0000010110000010
0000010011111111
-000000010110100
-000000110010011
-000001110011100
0000010010001000
0000001001110100
-000001101110100
0000001000010111
0000001011011110
0000001001101110
0000001001011100
-000000000111101
0000000011010010
0000000100111101
-000001101011111
0000000101000100
0000001100010011
-000000000010100
0000010111100100
0000001010000111
0000001101010001
-000001010011001
-000010011000010
-000100011000100
-000010000001111
-000000100000010
-000001000010001
-000001101101100
-000001111111000
-000000111000010
0000001011110011
0000000100100011
0000001000010101
0000000101101111
0000000000011101
0000000011000011
-000000011111111
0000010000100000
-000001010001100
0000001111111101
0000000001010101
-000000011010100
0000000000010110
-000001000101000
0000000001100000
-000001000011001
-000000101100110
-000000001011011
0000000001110100
-000010111100010
-000001110010001
-000001111000110
-000001001101101
-000010010011100
0000001001000011
-000001110101101
-000000011110010
-000001111110010
0000000001001010
0000001010110000
-000010001001100
0000001110000111
-000001011001001
0000000000010001
0000000101110101
0000000101000000
0000000111111111
-000000100111010
0000001010001001
0000000111111000
0000000011110101
0000000010101101
-000001110100000
-000000011000000
-000010011011110
0000010001010110
0000001000011100
0000001000011010
0000001110011101
0000000111000111
-000000101111001
0000001011101101
-000001110000111
-000010011010101
-000000101010111
0000000110110100
0000001111101110
-000010001100010
-000001001100101
0000000011101000
-000010000101100
-000000001101001
