0000001011100000
1111110010001110
1111101110011100
1111110011110000
1111101110110011
0000000011101011
1111110111000011
1111111011001011
1111111111000110
1111110111010110
0000001001101001
0000001001011011
0000001000011011
0000000111101011
0000001101000011
1111111111001010
1111111111011010
1111111101001111
1111110111110111
1111111101010100
1111110100101101
0000001001111000
1111110101100101
1111110010101111
0000000001001001
0000010000000001
0000000101001100
1111101111100110
1111110001000110
0000001010110110
0000001110010010
0000001110000011
0000001110000111
0000000101111101
0000000101111101
0000000110110100
1111110111011000
0000001101001010
0000001101100011
1111101011010001
1111110110101111
1111110011111100
0000001001001010
0000001100011011
0000000001111110
0000000011101111
0000000000000011
0000000000101010
1111110001000010
0000000100101100
1111111110011111
1111111001010011
0000001001000110
1111101110010000
0000000001000010
1111111010101000
0000010000110111
1111110010000011
1111110101000001
1111110110111100
1111101111101010
1111110000111100
0000001100110111
1111110000001001
1111110100011010
1111111100000001
1111101101010001
0000000010111011
1111100001001011
1111110010101000
1111110001110011
1111101001010001
1111101011111100
1111101110111111
1111101000001111
1111100101011000
1111101100101001
1111111001110110
0000000101100111
0000000000010111
0000000000111110
0000000010110001
0000000111100101
1111111000111111
1111111001001101
0000010001110000
0000000100110100
1111101111111000
0000001100000111
0000001111001011
0000000001010100
1111110001101011
1111110111010010
0000001110110110
0000001000010111
1111111111000001
0000001111010110
0000000000100100
1111111101011000
1111111001001111
0000000001111011
1111110000011011
1111010101011101
1111100111100110
1111100111100100
1111110011001001
1111100111011001
0000000011100100
0000000110011011
1111101110001101
0000000000100110
1111111011110011
1111110110011000
0000001010111100
0000001101011011
0000001001110110
1111111100000110
1111111110011010
0000001011001010
0000001011011110
0000101011100110
0000011010011011
0000101110100101
0000110110110011
0000110110101100
0000110110100111
0001000110010001
0000111110011000
0000010110100101
1111110011011111
1111111100110111
1111010011110110
1111001101010100
1111011010101001
1111000001000000
1111101010000011
1111101001101011
0000001000000101
0000001110010011
0000000101100101
0000000111100011
1111110000100100
0000000110011111
1111111110011010
1111111010110110
0000010110100110
0000001011000100
0000101011000100
0000111010111111
0000100010101100
0000110011101010
0001100000100110
0001010111110101
0001011110100000
0001011110000100
0001010111101111
0001011111100000
0000110000000010
0000100000010001
1111111110101110
1111100010011000
1110111110110110
1110110110011011
1111010101001010
1111011111001110
0000001010100111
0000001001111100
0000001011000100
1111111000000001
1111110001110100
1111101111100101
1111111000111011
0000010011110000
0000011101111101
0000011000101111
0000100110111111
0000101000111101
0000110000111101
0000111001000101
0000101101111000
0000110111101110
0001010101010111
0001010000001110
0001100010010100
0001010110111011
0000111000001010
0000100100101000
0000011000010000
0000000101010011
1111111111101101
1111001011100111
1110111010010111
1111001111111101
1111101100101000
1111111010001011
1111111000110100
1111111110110000
1111111001111001
1111101111101100
0000010000011001
0000010000111011
0000100001010101
0000011100000011
0000001110010001
0000010101011001
0000011000110011
0000010011111100
0000101100101111
0000110000010001
0001010000111101
0001001011101011
0001010111000111
0000111100001011
0000110011111100
0000100101000101
0000010001101111
0000001101111011
0000000001111110
0000000010010111
1111001000010100
1111010111000111
1111101001001101
1111101101000001
1111110001101101
0000000101110010
1111110001111010
0000001011100110
0000010011110000
0000001111000111
0000011001000101
0000110011110000
0000010100101110
0000010011010100
0000001010110110
0000101101100110
0000001000011110
0000101111101001
0000101011100000
0000110110001000
0000111001111101
0001010001001111
0000111011000011
0000111001011101
0001010011100101
0001000001001111
0000100110100111
0000010111101100
1111110001110010
1110110110011100
1111001110100001
0000001000011000
0000001001111010
0000000110101000
1111110101101111
0000001011000111
1111110110000101
0000000110101011
0000001000101000
0000100011000010
0000000000000110
1111101010001111
0000000111001110
0000000110111000
1111011001111010
1111101101101100
1111111100100000
0000010011000000
0000100100001100
0001000110101101
0000111101001100
0001100011000001
0001011011100010
0000111011011101
0001000100000000
0000011011011111
1111111100011011
1111000111010000
1111010000111100
0000000101011101
1111110011100110
1111111111100010
1111111010101001
1111111100000101
1111111101000010
0000001100100001
1111111101100100
1111111110110101
1111101010010011
1111011010100011
1111010000011100
1111001110010011
1111000010011010
1110111101111011
1110101100101010
1111100100110001
0000000000011111
0000000110001110
0001001010100010
0001000100000110
0001010011111001
0001000100100100
0000111101011111
0001000100010101
0000011101111010
1111110110010100
1111111011100011
1111111001001010
1111110101110100
0000001001001100
1111110111110101
1111110100111010
0000000100011110
0000000010011101
1111101100110000
1111010100110101
1110111001100101
1111000000011010
1111010101100101
1111000001110100
1110111010001011
1110111110011011
1111001101000000
1111101111110100
1111011010101110
1111101101000111
0000101011000100
0001000011101001
0001100001101110
0001101011011111
0000110010111001
0000111001101000
0000001011011011
0000001011011010
0000001101110100
1111101111101110
0000000110110011
0000000111110000
0000010001000101
1111110011000100
1111110001000110
1111011101010011
1111010010010111
1110101011101101
1110101110100001
1111001000010001
1111100101000110
1111110011000000
1111001000100010
1111100010110010
1111111011111000
0000000011110000
1111101101011101
1111110000011000
0000001000100011
0000101001011100
0001010101010000
0000110111111100
0001000100000110
0000011110010111
0000010111100010
0000011110001111
0000000110111010
1111110010110011
1111111110001100
0000001000001001
0000000111100110
1111111000111011
1111100110110000
1111111100110111
1111010101011101
1110101101111001
1110101000000100
1111010110100000
1111111110001011
1111100111110010
0000010100110101
0000100100010111
0000111010011100
0000001001001100
1111100101111110
1111110001000110
0000011110010110
0000101011100101
0000010011110100
0000001001100101
1111101111111100
0000000000001011
1111100000111101
1111111100010011
1111111001010111
0000000101001100
0000000111001010
1111110011001011
0000000101110001
0000000110011001
0000000110100111
1111110101100010
1111011101111110
1111010100001001
1111001110000000
1111011111010101
1111110101110101
0000001001000001
0000100010110000
0001001110111001
0001011001110111
0000001110011011
1111101000011101
1111111011101110
0000111001001000
0000010001111101
1111110000000101
1111100000111100
1111100001110011
1111011011111000
1111001000001011
1111101110100010
0000001010000011
0000010111000001
1111110110000111
1111111101000010
0000001100110101
0000001001010101
0000010000100111
0000000100000010
1111111001010010
0000001010000000
0000000011111111
0000000110100001
0000001010011111
0000001000111010
0000010111100100
0001001001011111
0000111000000100
0000000011101011
1111101100111100
0000101001100101
0000010101000101
0000000111000011
1111100000011101
1110111001000001
1111001110010101
1111001001110011
1111011111010000
0000000111011001
0000100001000101
1111111011011110
0000010001011101
0000000111101000
1111110101111101
0000001100010001
0000010000001111
0000000111001011
0000010101101111
0000100111010011
0000011001010111
0000100001011111
0000011010011111
0000000101000011
0000101110110100
0001001100100111
0000110011111100
1111010111101111
1111111111010100
0000111100000101
0000101011000101
1111111010100000
1111011100000010
1111011111011000
1111100101111101
1111110101100101
1111110000000000
0000001010111010
0000101110001111
0000010110110101
1111111111000000
1111111000011111
1111111011010011
1111110001101111
0000000101011001
0000111010010100
0000110110101111
0000010100111100
0000100010011100
0000111011110010
0000101110111111
0000001111111101
0000011001010111
0000111101000010
0000001000110110
1111001100000110
0000001001111101
0001000100110101
0000010001001111
1111111011101010
1111101110001000
1111110010011111
1111110010001100
0000001101011110
0000011001111001
0000010010000001
0000100000001111
1111111101001111
1111110000110011
1111111100001010
1111111000110101
0000010011110001
0000000110001110
0000110011010111
0001000110111100
0000110111010101
0000100011110000
0000011001110011
0000100001101100
0000010100010111
0000000001010101
1111110001110001
1111011100101111
1111011000011000
0000010011011101
0000100100000011
0000010110000100
0000001000001111
1111111101011010
0000010010001100
0000011011001001
0000101010100011
0000011111100100
0000011000110110
0000011000110010
1111111100011100
1111110001010001
1111111011010001
0000001011100101
0000001110000110
0000011101011000
0001001001100011
0001011101100110
0000101100111000
0000101111101010
0000110100011001
0000001111110110
1111110111111110
1111011001000001
1110111001100011
1111001110001010
1111011010110111
1111110110000010
1111111101000000
0000100010111111
0000010101010010
0000011010101001
0000100101111111
0000101111010101
0000111000101010
0000101000001110
0000110000110111
0000000111001111
0000000101011111
0000001100100001
0000000000011101
0000000110010101
1111111001110011
0000001010001011
0000111100011101
0001010110000101
0001001010111111
0001000111010000
0000101010010111
0000000010011101
1111100101110010
1110110000110110
1111000001010100
1111000011110111
1111001011110111
1111110110010001
1111111111011011
0000001000101111
0000011000111010
0000110011001100
0000101101110110
0000110101001010
0000100011010101
0000101110000001
0000000110111011
0000000011011010
0000000011011100
0000001100100010
0000000111100110
0000010001101011
1111111110101000
0000001100101100
0000111000101111
0000111001001100
0001000100011110
0000110010111010
0000011110000111
0000000011100111
1111101000011001
1111011011101010
1111001011010100
1111001001010101
1111100000000000
1111011011111001
1111110110010001
0000000100111101
0001000000000100
0001001100011101
0000111001011011
0000100011010010
0000100111010100
0000011110111011
0000000010100111
0000010110101110
1111101111101001
0000000001111111
1111110110000100
1111111100010100
1111110011100011
0000011100101100
0000011011011110
0000011000111110
0000101111011101
0000110111100111
0000011100110101
0000010110010001
0000011011010011
0000111011111001
0000101000011100
0000100110110001
0000001111010111
1111111011101101
0000010101000011
0000100100110100
0000110001100001
0000011010111010
0000101110101000
0000100100001101
0000100000000011
0000100000101110
1111111011100011
0000001101011011
1111111010001100
0000001000100011
0000001100110111
0000010000101010
1111111111110000
1111111001101010
0000000101101000
0000001101101000
0000001110101011
0000000100011011
0000000111010101
0000100000000111
0000010011101010
0001000011111111
0001000001000111
0001010001001100
0000100111000100
0000001111100001
0000011001110011
0000000101011000
0000101110011000
0000010101110101
0000011011111010
0000011011101110
0000100000010011
0000011010001111
0000000000010001
0000000110011000
0000001111100010
0000001000100110
0000001001010001
1111111100101110
0000010001110101
0000000100011111
0000001001100001
1111100101101000
1111100100101011
1111111010101100
1111111010100000
0000000101000101
0000000110010011
0000100011001000
0000010101011110
0000100011001101
0000001001010011
0000000111001100
0000011110100001
0000001101111111
0000011010001010
0000011010110110
0000011010011011
1111111011010001
1111111110011110
0000001111011110
0000010100100111
0000010011100011
0000001001110101
1111111100011010
0000010000010001
0000001110100000
0000010000101001
0000000101011101
0000000001011110
0000001000111000
1111100100111100
1111101010011011
1111011110111110
1111110100001000
0000001010110111
1111110010000001
1111111010101001
1111111001001000
1111110101110100
0000000011010010
1111111100111111
1111110100100001
0000011000111010
0000000000001100
1111111001010101
0000001011101011
0000001110001111
0000000111101101
1111110000110011
0000001011111000
0000001100010101
0000001000101001
0000000100000001
0000001000111011
1111101110111111
1111111011111001
0000000010011001
1111110000110000
1111111011000010
1111101111001110
0000001001110000
1111100100000000
1111100111011000
1111110111001001
1111100101010001
1111100101000000
1111110011101010
1111101110010000
1111101010011010
1111101101111011
0000010000001100
1111110000110011
1111111001011110
1111110110111000
1111110110001110
0000001110001101
1111110011000101
0000000100011001
0000000101010111
0000001101101000
0000000001001101
1111111011101001
1111101111100110
1111110111101110
0000000110000000
0000001101010011
1111110110110000
0000000011010100
1111111100010010
1111110100110001
0000000111110101
1111111110101010
0000001001110100
0000001000000010
1111101001110000
1111110110111100
1111101111101101
0000000000000011
1111101100000100
1111111001001011
1111111001111101
1111111100000100
0000000111101100
0000000101001011
1111111001010110
0000000101111111
0000001100111111
1111110110100110
