0000010000001001
1111110000001011
1111111100000000
0000000011110111
1111110110001101
1111110110011011
1111110011100111
0000000010010010
0000000001010110
1111111000000110
0000001101101110
0000000000000101
1111110010100000
1111111001011110
0000000011110000
0000010000111111
1111110010101001
1111101111011011
1111110011110010
1111111110110010
1111110111111011
0000000000101101
0000000011010101
1111110100111101
0000000001001110
0000001000011110
0000001101101111
0000001101000011
0000000110111111
0000010001011000
1111111101011100
0000000110110001
1111111010101111
0000001010000100
0000001000001000
0000001100101011
0000010010011101
1111111001010101
1111110000111001
0000000001000110
0000001110101111
0000001000000110
0000010001111000
1111111010110101
0000010001000011
0000000101110001
1111110111010011
0000001110010000
1111111110001111
1111110011010101
0000000111111100
1111111011010111
0000000111101010
0000010001100101
1111101110101100
1111101110110111
1111111101001111
1111110111011011
0000000010111111
1111110110101100
0000000011001100
0000001011100001
0000001101010001
1111111000101000
0000010000010101
1111110101100101
0000000100010100
1111111101001100
0000001000011100
0000000101001111
1111111010011010
0000000110111111
0000001000100001
0000000000010101
0000001001101011
0000010110100011
0000010010101110
0000010000001000
0000001001101101
0000000010000101
0000000111111100
1111111101111100
1111111100011101
1111110111101111
1111110010111011
0000000100101110
1111110010000110
0000000010110101
1111110110001011
1111110001000111
0000000101100111
0000000011000111
0000001101111000
0000001001010010
1111111000100111
0000010101111110
1111110111111101
0000000001101110
0000001100011100
1111101101010101
0000000010111110
1111110101001110
0000010110001010
0000000101010000
0000011001001100
1111111111110010
1111111100001001
0000000101000010
0000010010001011
0000001101101100
0000001001101000
1111110010000011
1111111110100000
0000000001101011
1111111000000110
1111111100100011
1111111111100000
1111110010010000
1111101011100000
1111111101110010
1111111111001110
1111100110101101
1111101110100111
1111110100011011
1111110100011011
1111110100111011
0000001110000000
0000010100010011
1111110001001011
0000001111111111
0000010001000100
1111111110001011
0000000100000010
1111111110100100
1111111101010011
1111111010101101
0000000100011101
1111111011110100
1111111000000001
1111111001100110
0000010001111111
0000000111001110
1111110100011101
0000000001100100
1111101110010000
1111101000100110
1111101000110100
1111100111111010
1111001000000001
1111100010110110
1111011000100000
1111100010010010
0000000110100100
0000000011110011
0000100000110111
0000011111100010
0000010110110010
0000011111001011
0000100011011001
0000100001001111
0000010001001111
0000001110011000
1111110110101110
1111110111000011
1111101001011110
0000000101111000
0000001100000011
0000001010110101
0000000000011001
1111110101011011
0000010001001010
1111110011001001
1111110010011110
1111101101001101
1111001100000011
1111010011100101
1110111100000000
1111001100011100
1111001001000100
0000000010100111
0000010111110111
0000100001000110
0000110101110000
0001001110111000
0000110000001010
0000101111010100
0000101000101111
0000010010000110
0000011010101101
0000010100010101
1111111110111100
0000001011100101
1111110110010001
0000001000000111
1111101101010101
1111111100100110
0000001011001001
0000000110111100
1111111101011011
1111101011111000
1111011110110101
1111001110110100
1111001100010011
1111100001010010
1111000111011000
1111101101110010
1111110010010110
0000001111111111
0000010110001001
0000100010100110
0000111100001110
0001100000111110
0001001011011011
0001000001011101
0000100110111110
0000000110110001
1111111000111100
1111111111101101
0000010000001001
0000010011001101
0000001101100100
1111111000000000
1111101011111110
0000010001100001
0000001010001101
1111110001010000
0000000100101101
1111111100000101
1111010101110111
1111001011010001
1111011000000000
1111001110110001
1111101001111100
0000010111111001
0000100000010001
0000100110111100
0000101111111010
0000110000110010
0000111101010010
0000101101101101
0000110011001101
0000001001001001
1111110001111110
1111101011010110
1111110011100010
1111111110010101
0000001011000100
0000011110011100
0000010011100011
1111111010100010
0000001110110111
1111101110100010
0000000000111010
0000000000101100
1111101101011001
1111110011000010
1111010110110100
1111011100110001
1111111100000000
0000000110010100
0000110110000001
0000101101010010
0001001111110011
0001000010000110
0001001011100101
0000111010101101
0000100001110001
1111100010110100
1111000011100100
1111000010000110
1111001010100000
1111110100100001
1111011101110111
1111101010000110
0000100101011111
0000111101111110
0000011110011101
1111111010001101
1111111010111101
1111111110111110
0000000011100111
0000000010101000
1111111010010001
1111100000110101
1111110001100110
1111100100000110
0000001111111111
0001000001111010
0001000110110010
0001110000010001
0001100001111111
0001101001111011
0001000010100010
0000110010001111
1111111000101001
1110111011001011
1110011101100110
1110111010010001
1111011101011101
1111101101110101
1111111001111100
0000000101100011
0000101100010011
0000111001001110
0000011011000100
0000001111011011
1111110000100011
1111101101111010
1111111101011100
0000000011100101
0000000111010001
1111110101010001
1111101010011101
1111111111110111
0000111001000010
0001100110011010
0001101010100100
0001100001011100
0001011001010000
0000101011110100
0000011111000001
0001000010001000
0000011111100010
1110101111010110
1110011001100110
1110110000000111
1111011100111011
0000001010101011
0000001111010001
0001000100001010
0001011011101101
0001010110110001
0000110111000000
1111111111111110
0000001110000011
0000000101100000
1111111101000101
0000000100001110
1111110100000000
1111111000000000
1111111001111110
0000010101110011
0000110100001111
0001010000010110
0001011010011111
0000110001101000
0000100000100111
0000011000011111
0000110000110110
0001001011101000
0000011101010110
1111000111100000
1110100010011001
1111100000010110
0000000001100110
0000000101001011
0000100011011011
0001000110000000
0001101111000110
0001010110001001
0000111101011101
1111111001100011
1111111111110000
1111110101110001
0000001100110010
0000001110010111
1111111001001001
1111101111111101
1111111110011101
0000001000010010
0000110000111111
0000110111001011
0000100000100010
0000110110000101
0000010110100000
0000101100010010
0000101100101110
0001010000000110
0000000101101000
1111100010110100
1111000100111010
1111001001011110
0000000000101000
0000001011111000
0000010010011111
0000100000001100
0001010001110101
0001010100001101
0000101011111010
1111101110000010
0000001000011100
0000001001001110
1111101111111001
0000000010101001
1111110110000011
1111110111011001
1111110011010100
0000000100011110
0000110010011000
0000101101101011
0000010000011101
0000101100111101
0000101000101110
0000110111111010
0000111101100000
0000111001011100
0000010100011011
1111111001000111
1111001101111110
1111100110101001
1111001110101010
1111010101000101
1111100000101110
0000010011011111
0000101111101000
0001000111101001
0000101101100011
1111110101010000
0000000101110000
0000001011011000
0000000101010011
1111111110111010
0000010000000110
1111101101111011
1111100001110001
1111111110111101
0000001010111101
0000011010001011
0000100100001010
0000101110001100
0001001011010111
0001001011010101
0000100100010011
0000000011010000
1111101110000000
1111011011000011
1111010001110101
1111000011010011
1111000100101100
1111010000001111
1111100000001100
0000000101100011
0000010011100010
0000110000000010
0000000001110011
1111101101100111
1111111001000100
0000000010011101
0000000101100110
0000000101100100
0000000100111000
1111101000010001
1111101110010001
1111111101010101
0000010011110010
0000000110001000
0000110101000101
0001010001001001
0001100100000010
0001001010001100
0000010100110110
1111100110100011
1111010000110100
1111001111100101
1111000110110001
1111001001101011
1111010100010101
1111000001011111
1111100100101001
1111110101101010
1111110001101111
0000010111100010
1111101101110110
1111101101111100
1111101011100110
1111111111101011
1111111010000011
0000000011001011
1111101110100001
1111110001111101
1111101011000110
0000000000010000
0000001100110000
0000001111111000
0001001000010101
0001011101010001
0001110011111001
0001100110100010
0000011010101101
1111000010000101
1111001011000111
1110111000001011
1111101010010100
1111111011001001
1111110100101111
0000000010101001
1111111101110100
1111100111100100
1111101100101100
1111110111000000
1111100110001011
1111011001010001
1111110100111101
0000001100100101
0000000011101100
0000000001001001
0000000010010101
1111110111001110
1111100110011111
1111110100101011
1111111001101100
0000110110100001
0001000000101010
0001101100110101
0010000110001101
0001011111111011
0000100110011000
1111100100010011
1111001111010001
1111110101111011
1111110010111010
1111111100010101
0000000000010000
0000011000000110
0000010011011110
1111111101011011
0000000000111011
1111100011110101
1111100111001000
1111100101101001
1111110010100101
1111110100111100
1111101101110100
0000001110000001
0000001011110000
1111101111001000
1111011111111001
0000000000111001
0000001011111110
0000100110000101
0001001001110100
0001010000100100
0001110100111010
0001001100111110
0001001011010000
0000001011100100
0000000000011011
0000001111011100
0000011011011011
0000001110000111
0000100110001011
0000100111011011
0000001101111000
0000001111110100
1111110101111111
1111100001011011
1111111011010011
1111101001111100
1111110001000011
1111110101011110
0000000100100010
1111111100100011
0000000100110000
1111101111000010
1111100010111100
1111101100101110
0000001111100111
0000101100011110
0000101101011011
0000101100101111
0001001011110101
0001000110011101
0001100001011010
0001001101110111
0001001010000011
0000111011000100
0000100010011101
0000010111011101
0000010111100011
0000000011001110
1111111100011011
1111111010000101
0000000011101001
1111111100100000
1111110101000000
0000000110110010
1111101101000000
1111110011010100
0000001111010110
0000001100000010
0000000001010000
1111110000100001
1111101011111000
1111100111010100
1111111000001100
0000110001101111
0000011111100001
0000100001100011
0000111000100000
0001001101100011
0001011111101110
0001101010011100
0000111110010001
0000101101010101
0000011110111111
0000010101001111
0000000111111000
0000000001110000
1111110101100101
0000000010010001
1111101110111001
1111101000011000
1111111110001101
0000001010001111
1111110011110001
1111111001110100
0000001001011011
1111111001011010
0000001000011100
1111111010011010
1111100110010011
1111110010001000
1111111110011000
1111111111000011
0000001101110001
0000101110111110
0000100011010000
0000110100101111
0001010011111000
0001001101000010
0001001110101010
0000010111001001
0000001101001000
0000000010101101
1111101001100110
1111110110000011
1111111111010101
1111111010001101
1111111010100001
0000000101000110
0000000101011010
0000000100100110
0000010000110001
0000001101110110
0000000010011011
0000010001001000
0000001110000111
1111110111101100
1111011010001000
1111001110000101
1111011001101000
1111011111110101
0000000100101001
0000001100010111
0000000111111110
0000111000110101
0000111000110000
0001010110001010
0000111111011111
0000101110011111
0000100111101100
0000001101110111
0000001000111001
0000001010011111
0000001011000001
0000001100101001
1111111100110101
0000001010000111
1111111010100101
0000001000100101
0000001101001100
1111111111101011
0000001101001011
0000001110011101
1111111011101000
0000001101011001
1111111011111101
1111101110110000
1111011001101100
1111010010101010
1111101000010101
1111110001010000
1111100010101011
1111111111001011
1111101111000000
1111110110110101
1111111010000101
0000011000010001
0000001010100101
0000010001000110
0000001001001100
0000011101010110
0000000000101000
1111111101000011
1111110110100011
1111111010111010
1111110001100110
1111110110010110
1111110001100111
1111111010001110
0000001001111010
1111111110001101
1111111101110101
1111110100011110
1111101101111000
1111101000010101
1111110101110011
1111011110100001
1111011010010010
1111101011001101
1111001110100110
1111001011001110
1111010011010101
1111100110100001
1111011011110100
1111101011001001
0000001010100111
1111101101011111
1111110101011110
1111111001000001
0000001000110000
1111110110010111
1111110000111110
1111110110010110
0000010000111001
1111110000010011
0000000010001101
0000001110000000
1111111010101110
0000010010001110
0000000000110100
1111110000000011
0000000100011101
1111111000000001
0000000010001101
0000000110101001
0000000001010001
0000000101110000
1111101100110101
0000000010111010
0000000111001110
1111101001110110
1111111101001010
1111100110101110
0000000010101111
1111110110011000
1111101010100100
0000001000011010
0000001111001110
1111111101111010
0000000100001000
0000000001100001
0000001111100101
1111101110100010
0000001111010000
0000000010100101
1111110010101110
0000000101101010
0000010000101000
0000010001000100
0000001110100010
1111111000101100
1111110101011011
1111110101011101
0000000111001111
1111110110011000
1111101101111110
1111111101100111
1111111010111011
0000000101000110
1111110011100110
1111110100100111
1111111010101001
1111111010010101
0000001010011111
1111110111010011
1111111100011100
1111110100000101
0000000000001010
0000000000101010
0000000001000010
1111101110100110
1111111111100101
1111111101010110
