1111111011101100
1111111011010000
0000010000101001
1111111101101000
0000001011100010
1111110011010011
1111110111101010
0000001111000000
1111111100011101
0000000111011100
1111111001001001
1111101111011011
0000001110100001
0000001101011110
0000000011100011
0000000001001000
0000000100010001
1111111000001110
0000001011100001
1111111000110010
1111111000101000
1111110100111010
0000010000100111
0000000011001110
1111110110011101
1111111111011001
1111110001011111
0000000100000110
1111110001101010
1111110011000100
0000001111100101
1111111011110000
0000000001010011
1111111010010010
1111111110110011
0000001010110010
0000000100001001
1111111010101010
1111111001011100
0000001100010101
1111111110010010
0000001001100110
0000000101100001
1111110010111100
1111111010110011
0000001010100111
0000000011000110
0000000110100011
1111110011001000
0000000101100111
0000000110011010
1111110001000011
0000000001011001
0000000100011100
1111111011101011
1111110010011001
0000000101000110
0000001100001111
0000001100001111
1111110100000110
0000001100101011
1111111010111000
1111111000101110
1111101111001001
1111110001110111
1111101000111001
1111111111010010
1111100010110111
1111011111010011
1111110000000110
1111101000110000
1111101011000101
1111101010110010
1111101101011100
1111110001111010
0000001001011011
1111110100101001
1111111100000010
1111111110101101
0000001100111011
0000000100101111
1111110100110110
0000010010000001
1111110011000010
0000000111011100
1111110010111010
1111111100001100
1111111101111111
0000001001011010
0000000100111111
0000000011010101
0000001001110011
0000000011010001
1111100111101100
1111110100001001
1111101101010001
1111001000000010
1111000110001000
1111100101011100
1111001011100010
1111001111111001
1111010111110111
1111101100001010
1111100110100000
1111101100011011
1111111111010011
1111111110000101
1111111000100001
0000001011100111
1111111010011010
1111110110001010
0000000111011111
1111111010011110
0000000111010100
1111110011001111
0000000001000110
1111111011100010
0000000111100110
1111110111111101
0000000011000100
1111111001000001
1111110101011101
1111100000100010
1111100111110010
1111101001000111
1111101000001010
1111100000101000
1111100010111010
1111011111101100
1111100101100000
1111101000110010
0000000000011110
0000010101110111
0000010010110000
0000010111011000
0000011000000110
1111110101100000
1111111111010110
0000000100111000
0000000100001101
0000000101111101
0000010010001001
0000000000100101
0000000111101101
1111111000110110
0000010010110010
1111110010101101
1111101010010100
1111110010010100
1111011010010110
1111101111101011
1111111111111110
1111110011011110
1111110010001010
1111110001111100
1111101010011001
1111010001010101
1111010001010001
1111111000010000
0000000100011001
0000100010011000
0000100100000000
0000100001101000
0000100111101001
0000000100100101
1111111011111100
0000000100011111
0000000110111011
0000001110110000
0000000101011110
1111110110101111
0000000000011100
0000000101101111
0000000101101111
0000000000000001
1111011110110111
1111100101111111
1111011110101111
1111100111101001
1111011101100010
0000000100110101
0000011111011100
0000011011111000
0000010100110011
1111111110100011
0000011110011111
0000011001100001
0000100001100110
0000100001000001
0000010110001111
0000100111011001
0000100000101000
0000001001011000
1111111101111101
0000000100110110
0000001011110111
1111111001011101
1111110100001001
0000001010100000
1111111101000111
0000000110001100
1111110010000100
1111011000010111
1111011011100101
1111000101110110
1111011010001111
1111100001000101
1111100010101010
1111111101000000
0000110000011010
0000110111110000
0000111110001110
0001001011010011
0001001010110100
0000100111010100
0000011001110011
0000001010001111
0000001110110001
0000001010100001
0000001100100010
0000001000001111
0000010001010101
1111111000100100
1111110110010111
1111110010000111
1111110001111001
1111111001111011
1111111110010110
1111101010001110
1111101011001101
1111100100000100
1111001000001001
1111011111111110
1111010110001101
1111010000110100
1111010111110101
1111110111010001
0000000111110101
0000001001110010
0000000001101011
0000000101011111
0000010111000100
0000010110111101
0000010101011111
0000010000011011
0000001111011110
1111101100111011
0000000010100001
0000001011100000
1111110000011000
1111110101111010
0000001111001011
1111111100011110
1111110000001010
1111110010011010
1111111001101000
1111011011100110
1111101100000011
1111011011100000
1111101111010100
1111101110000101
1111110100010110
0000000011000101
0000000001110110
1111101100001111
1111100100000001
1111010000011000
1111011011010010
1111111100000100
1111110110011111
0000001011001111
1111110001100000
1111110100111100
1111110010001011
1111100000100110
1111011110110001
0000000011000010
0000000110100011
0000001000010101
1111110011000101
0000010001111010
0000000110111000
0000000100101011
1111111010000110
1111011100110001
1111110110000101
1111100101101110
0000010101000011
0000011001001000
0000101110111001
0000101011010111
0000100000100011
0000000000111111
1111011010001100
1110111111110010
1111110000000010
0000000100110100
0000011011011101
0000000000110000
0000000101010001
0000000000100100
1111110110010000
1111101011110011
1111101001110000
1111111000110110
1111111100001000
0000000100011001
1111111000110001
0000000110000001
1111111100011011
1111101100111100
1111111101011100
1111110110010110
1111111111110011
0000011110111000
0000101101101010
0001001001011111
0001011101011111
0001010111000110
0001010001110100
0000001011011111
1111011100001110
0000010100011000
0000110101000001
0000100001111100
0000111110000001
0000011000111100
0000001111000101
0000011011011011
1111111100100011
1111101101000001
1111110110100101
1111100100111110
0000000010001010
0000001110001000
0000001100111001
1111111111100110
0000000111110101
1111101010100101
1111110111101000
0000000010001111
0000100110111111
0001010101101100
0001100000010001
0001101100010010
0001101100111000
0010000001111001
0001110101001001
0001000010100011
0000101111011110
0001110101011111
0001101110110011
0001000111011100
0001010110001100
0000110111111111
0000110000011100
0000100101110000
0000100000001000
1111110011000011
0000000000010101
1111111010011110
1111111101110000
1111111110110000
0000000000001011
1111111011111100
0000000011100010
1111111011000110
0000001001100110
0000011101000001
0000111111011000
0001011011101001
0001100001111000
0001011101100100
0001111110100110
0010001101010100
0001101010010000
0001000100010111
0001111011100111
0010100010111101
0001101000000000
0001001101101110
0001101000100010
0001011010011110
0000111111001110
0000100100000100
0000100001000111
0000000100110011
1111100100110010
1111010011111100
1111101111101001
1111110000100100
1111110001110100
0000001011001000
0000000101010011
0000001100110001
1111110001101111
0000100011111001
0000111011001010
0001010110111111
0001101111111101
0001100101001000
0001011101111101
0001101011001100
0001000010101011
0001011001110101
0001100110011101
0001010110110011
0001001111001111
0001011110010111
0001101100011010
0000111010110001
0000011110100000
0000001111110011
0000000110000101
1111100110000100
1111010011111100
1111101011010000
1111110010000110
1111111100000001
0000000111110110
1111111010101110
0000000110000001
1111111111010101
1111111110101110
0000000111000000
0000011110011110
0000100011101011
0001001101110111
0000110101101101
0000111100001011
0000101111011110
0000111101011101
0000100100101101
0000111010011101
0000110000110011
0000111100001100
0001011000110001
0001100010111010
0000110001101001
0000010000100111
1111110111000100
1111010110101011
1111100010001011
1111011100000000
1111001001001010
1111110011010001
1111101111100100
0000010000111000
1111110001110011
1111110001110100
0000000011100111
1111110010000011
0000000000100000
1111110011011111
0000010001010000
0000101000000011
0000111111011101
0000101110101010
0000010010100101
0000011000010011
0000010111000010
0000001100110000
0000011110001000
0001000110111101
0001001111111010
0000110100000100
0000011011011101
1111110001100010
1111101111011101
1111010000111101
1111000101100111
1111001111100010
1111000001001010
1111011001000100
1111111010100000
1111111011110011
0000001010110110
1111111101110011
1111111100100101
1111111111000111
1111110001010010
1111100110000101
1111011011010100
1111111000111111
0000100001110110
0000000010110001
0000001111000110
1111111101011000
1111111011000111
0000010110001001
0000101101001110
0000111010100010
0000111100111011
0000011110010101
0000000000100000
1111101001001111
1111100001100011
1111100001101100
1111001100001000
1111010111001011
1111000100000011
1111010111001010
0000000011101111
1111111011010110
1111111111010110
1111110001101100
0000001001101100
0000000010000001
1111011100111101
1111011000111010
1111100001000010
1111001101110101
1111100110001100
1111110000100101
1111100100110010
1111010010111111
1111001011110100
1111100001010000
0000100101010111
0000101010101001
0000001100101100
1111101101110001
1111101110011011
1111101011000001
1111110101110010
1111101001110010
1111000100000111
1110111100111100
1111000001000010
1111111011011011
1111111011010101
1111110100000010
1111111000111011
0000010010000011
1111110010111011
1111110011100001
1111110001111000
1111100001110011
1111001110100011
1110110000010000
1110110010101011
1110110010011010
1110010110011001
1110011110110011
1110100011000010
1111001011011010
0000000000100111
1111111100000010
0000001011001110
1111111100000111
0000000000101110
1111111111011110
1111111001001100
1111101010111011
1111001010100001
1111001101111000
1111101111010011
1111110110110000
1111111000011111
1111111101111011
1111110000000100
1111110001111110
1111110010100100
1111110111110011
1111101101110100
1111110100010100
1111100111000111
1110110100111110
1110110010010110
1110101010101101
1110101110011100
1110100011001101
1110100100101001
1111000010101000
1111111000010000
1111110011010101
1111111110110101
0000000010111111
0000001010010000
0000011010100100
1111111101001010
1111110110000010
1111010001100111
1111010011011000
1111100110011010
1111111111100000
0000001010101001
1111101101111110
0000000111111001
1111110101110000
1111111001011110
1111101111001111
1111111010110000
1111101011111001
1111100010010010
1111100101110011
1111011010100101
1111010001100001
1111000010111111
1111000011101100
1111001000110001
1111011010000101
1111100110010100
1111111000110101
0000000101010101
1111111010011110
1111111111101001
0000000100101100
0000010001000001
1111111111000011
1111110000100001
1111110110110111
1111100111111111
1111110000101011
1111111011010110
1111110111001001
1111110000110111
0000010000101100
1111101111010100
1111110010111010
0000001011010100
0000001010110001
1111110001011011
1111111000000101
1111111110011001
1111110110001111
1111101011101101
1111100101100001
1111110011011101
1111100111101000
1111110101000010
1111110100000010
0000001001010100
0000001111111000
0000000100001101
0000010001010111
0000001111011100
1111111011001010
1111111011101110
0000000101100011
1111101111010111
0000000011101010
1111110011001000
1111111011010101
0000000100011011
0000001101111010
1111110111011110
1111110101111001
0000000010110101
0000010001111110
1111111110000101
0000000001111000
0000000100101100
0000001011011010
0000010110011001
0000001000100000
0000000111010101
1111111111100011
1111110011110000
1111111101011011
0000001001000111
0000000100111101
0000001111101001
0000001101011100
0000100101110011
0000001101011101
0000001011111010
0000010101011101
1111111010000111
1111110111100110
1111110100111110
1111110011111011
0000010001111111
0000010000101001
0000000000001101
1111111100000100
1111110001110101
1111111000001001
1111110101001001
0000000100001001
1111110100011010
1111111100011010
1111110000101100
0000000011110010
1111101011101111
1111011001011001
1111100010010011
1111011000101001
0000001100001010
0000000101110111
0000101001000001
0000101111001110
0000101000000101
0000101000110010
0000000100010011
0000001110011101
1111110110100000
0000010000001110
1111101110000000
0000000011100110
1111101110101100
1111110001001010
0000001101010101
1111111001011110
1111101111010011
0000000011100010
0000000011011110
1111110010000000
1111110110100101
0000001000011101
0000000111000110
1111111000001010
1111111101000110
0000001010011100
0000001011010111
0000000001010100
1111111111000100
0000100000100101
0000100001110101
0000011111000011
0000101100110000
0000010001001101
0000001111101011
1111110110011111
1111101110110111
1111101101111110
0000001011101110
1111110100110101
0000000010100111
1111111111100100
1111101111101010
0000010010000110
1111111001010110
1111110111010111
0000000000111111
1111111101010100
1111111101111001
0000001110000111
1111111110110110
0000000100000011
1111110010000001
0000000001100101
1111110010110001
1111101011001111
1111101101111000
0000000011001001
0000001101010000
0000011001001101
0000001001000011
1111110100100111
0000001101000110
1111110101101110
1111110001100111
0000000100001010
1111110010100100
0000000100100100
1111110011111100
0000000100010000
0000001011000010
0000000101001011
0000000000110000
1111111110010011
1111101110100110
0000001011001110
0000001111011100
1111111101111100
0000001001001100
0000000110110110
1111110101000010
0000001011001001
1111111101011010
0000000011011111
1111110110011100
1111110111100111
1111101110100100
1111110110110011
0000001100000100
0000010000110101
1111110101100100
1111110101001011
0000000010100010
0000001110110110
0000001100000101
0000000100010001
