0000001110101100
0000000001010011
0000000101111111
1111110010100010
0000010000010100
0000000001001010
0000001110011011
0000000101001010
1111101101111011
1111111100011100
0000000111011011
1111110100000101
1111111110000111
0000001111111111
1111110110100000
0000001000111011
0000001011110000
1111110111010011
0000010000000011
0000001010111011
1111111101011100
1111110101011000
0000001111110010
0000001110011111
1111111001001001
0000010001111100
0000001011011100
1111111011110110
1111111110010001
1111101111010111
0000000100001110
1111110010011111
1111111011001011
1111110001011101
0000001101101010
0000000111101111
1111111100001111
0000001101100001
1111110000111101
0000000010110000
0000000001011110
1111111110000100
0000000011101010
0000000100000111
1111111110000100
1111110001001110
1111110101011011
1111110101100001
0000000010111001
1111110001110010
1111111011110101
1111111110000101
0000000100011011
0000000001001101
0000000000001000
0000001101100000
0000001110101001
0000001001000001
1111110000101010
0000000110111111
0000001000011101
1111110110101010
1111110111111001
1111111000011101
1111101111001000
0000000111100100
0000001001001110
1111111111100000
0000000001111100
0000001101000010
1111110010010100
0000001110010011
1111111011010011
1111110110011011
1111111110110111
0000001011010001
0000001101010110
0000001001011011
0000010000001011
1111111100100011
1111111001101001
0000001100010100
1111110010111011
1111110110110011
0000001111111000
1111110010010001
1111111000101001
0000000010110111
0000001011010110
0000001101010110
0000001011110000
0000001110100110
0000010000100100
1111110011001111
1111111010011110
0000010001100001
1111110000000011
0000001110100010
0000000001000001
0000010010100000
0000001110001001
1111110011010111
1111101110010011
1111110111111101
1111110111100110
1111110001101001
1111111101011101
1111110100100110
1111101111101001
0000001110100010
0000001101110101
1111111111111110
0000001101110001
0000000111001011
1111111100011000
1111111100110111
1111101111111010
0000010000111010
0000000000110101
1111111000011011
0000001010101000
1111110100000000
0000010010010111
0000000111001100
1111110101011110
0000001000111110
0000001111001001
1111101111001100
1111111010001001
1111111010000001
1111110000101110
0000000011001101
1111110010110101
0000000101101100
0000001100001000
1111111010111001
0000000100001010
0000001110100100
0000000010011101
0000010010001000
0000000100001101
0000001110000000
1111110110001001
0000001001001000
1111111011100110
0000001001001010
0000010001001001
1111110111100110
0000001011111111
0000001100110110
1111111010111111
0000000101010111
1111110101011110
1111111001110011
0000000000111111
0000000110011100
0000010000011000
0000000000011110
0000001100110110
1111110010011110
0000001011110100
0000000110010001
0000001011111111
1111101111100011
1111111001000111
1111110110010110
1111101111011001
0000000111011101
0000000001010010
0000000100100000
1111110100111110
0000000101001000
1111110110100101
1111111111000110
1111110010001100
1111111100010100
1111111110010011
0000000100110101
0000010010000010
1111111110011000
0000011001101010
0000000010101011
1111111001110000
1111111110101100
0000010100000011
1111110111010011
1111101101100101
1111111110100110
1111101010001110
1111110110101110
1111111101101100
0000001010000000
0000001001000010
0000010000010101
1111110011110101
1111111011110111
1111111100001010
1111110000101100
1111111001001000
1111111111100101
0000010001110110
1111111101111011
0000001100011111
0000001001011111
0000000001010101
1111111110001001
0000010010100101
1111111111100011
0000000111101000
0000001011000000
0000011001111111
0000001001000100
0000011000000001
1111110011110100
1111110101011101
1111111111101000
1111111011111111
1111111011110100
0000000101010111
1111111111011110
0000001100000001
0000010000110101
0000001010111110
1111110000010010
0000001100011111
0000000110010000
0000000111010010
1111110111111101
1111110010011011
1111111010011000
1111110101111011
0000000000100011
1111111111100110
1111111110010010
1111110101000010
1111111001010101
1111110110100000
1111110110111000
0000010011110100
0000000101010101
1111111000101001
0000000010010111
1111111010001010
1111101100100000
1111101101100001
1111110010111001
0000000100011011
0000000110010110
1111110110110101
1111111001010001
0000000010110101
1111110011110001
1111110110110000
1111111100001001
1111111011010101
1111110100011011
0000000001100000
0000000111110101
1111111001100101
1111111000000100
0000000011110100
1111101000111001
1111111111100100
0000000110100010
1111111001101010
0000010000000110
0000001111011000
0000001110001010
1111111111011011
1111110011010001
1111101100000001
1111110010000110
1111101001010110
1111111000100001
1111101111111010
1111110101111001
0000000010110100
0000010001101010
0000000101100011
1111110101111101
0000001010111000
1111111001111011
0000001101001001
0000000111100100
1111110001110101
1111111101110000
1111101110100101
1111111001101010
0000000110111110
1111101001101000
1111111100100110
0000001000010000
0000000111001000
0000010100110000
1111111110111100
1111111010100011
0000001010100101
0000000100101100
1111111100001001
1111110010010110
0000000011000110
0000000010110111
0000000000000010
0000000011101110
0000000011001101
1111111001001001
1111101110011000
1111101111010000
0000001100001011
0000000000011010
0000000011111001
1111101110110010
0000001100101110
1111111110111010
1111110011110100
1111111011100100
0000001001000010
1111111110000001
0000001000011001
1111111100010011
0000001001111101
0000000010101000
0000010011000010
1111110101110000
0000001010010010
1111110011110100
1111111011000100
1111100111100100
1111110000010010
1111111010010000
1111110100011010
0000001101100101
0000000011101100
1111111000100000
1111111110110010
1111110101011011
0000010001101101
1111110010010000
0000001011010110
1111111110010100
0000001001101000
1111110000101010
0000000000010001
0000000010100100
0000001000010100
0000010001100111
0000011011000101
0000001011111101
0000011100101111
1111111111101100
0000000000101010
0000000010110100
0000001000101000
0000001101100011
0000001011101000
1111111001101011
0000000000001110
1111110011001011
1111110110001111
1111111010100001
1111111000111011
1111110011110000
0000000100010011
1111111101011011
1111101110100100
0000000100001000
1111111110110101
1111101111100100
1111111000000001
1111110001111111
0000001000111110
0000000000101011
1111110101111010
1111111101011001
0000000111101100
0000001001010000
0000001001101111
0000011011010110
1111111001110111
0000000010110111
0000000000101001
1111111101111011
1111110000111010
1111111011001110
1111111100011100
1111110101001010
1111111010001111
0000000000000010
1111111111010010
1111101110000010
0000001100010010
1111101110111100
0000001101100011
1111111001000110
1111111110001010
1111111101111100
0000001000100010
0000000101010000
1111101110100010
1111101011100101
1111111011011111
1111110111000100
1111111011011101
0000011000110100
0000000110101011
1111110110101011
1111110100111010
1111110011000100
1111111001000001
1111110101010011
1111100101101011
1111110010000100
1111110011000110
0000001011001111
1111110001001100
1111111001000000
1111110001110011
0000000011011111
0000001110110011
1111110010100011
0000000101101000
0000001001101111
1111110111100011
0000001101111010
1111111010100111
1111111111100000
1111111101110100
1111110011101101
1111110100100001
0000000001100010
1111111110101110
0000010001000111
1111110101001001
0000000000010010
1111110101000011
1111110111111010
0000001101101111
0000000010101001
1111110001110000
0000000010000111
0000001000000110
0000001110111110
0000000001111001
1111110111001010
0000010010010100
1111110010010111
1111101111010011
0000000000000001
0000001010000010
0000001101010010
0000000101101101
0000001111001000
0000001101111111
0000000001111010
0000000110000001
1111111001010011
0000000111000011
1111101100000111
1111110100110110
1111101110100111
1111110110000100
1111110010011100
1111111001111010
1111110011101001
1111111101001010
1111101000010110
1111111001110100
1111110010011000
1111111010011010
0000001100111101
1111110100001010
1111111011101000
1111101110100010
1111111101101110
1111111110110010
0000001111111010
0000001110001010
0000010010001100
1111110010111111
1111110110110111
1111101110010011
0000000101111001
0000001000110101
1111110101110000
1111110011111100
0000000100010001
1111110100001001
1111110101111010
1111101001001111
1111101111101101
0000010000001001
0000001110110011
1111110000001001
0000000101100001
1111111101001100
1111111000111101
1111110011111010
0000001101101100
1111111101111100
1111111101001000
0000010001100110
1111110100000000
0000001000110111
0000001010100111
1111111111010000
1111110001101011
1111111000110001
1111110010110111
1111110011010100
0000000110011110
1111101111010100
1111110011001000
0000001000101100
1111110010101010
0000000011011101
1111100101011010
0000000000000000
1111110011111000
0000001001100110
0000000001011001
0000000111110100
1111110010101000
1111101100000101
0000001000000110
0000001101111010
1111111000100011
1111110011100010
0000010010010000
1111110000101001
1111111010011111
0000000010101001
0000000000001011
0000000010111101
1111110000010111
1111110001001001
1111110100100010
0000001110101001
1111110101010001
0000001010000100
1111110101110001
1111110111010100
1111101100001010
1111111011010110
1111111100001110
1111110101101111
0000000011110111
0000000101110000
1111110100010101
0000000111100110
0000000011010010
1111110001000101
0000000101101110
1111110000110111
0000010011010100
1111111101010110
1111111011101001
0000010011101100
0000010000010011
0000000101010010
0000001100010110
0000000110111100
0000010000101100
0000010000110100
1111111010001111
0000001001110001
1111101100011110
1111101001010000
0000001001001100
1111101101110100
1111101111100001
1111101101101100
1111101110010100
0000000101001100
0000010011100100
0000001110111010
1111111110110110
0000010000011111
0000010010010010
1111110101011100
0000010010101100
0000001111011010
0000010011010011
0000001110110111
0000001100110011
0000001110101100
1111110000011000
0000000101111000
1111111001001011
1111101111011011
0000001010010111
1111111110111001
0000001001111100
1111111110000100
1111111000110101
0000000001001111
0000001001010011
1111111011111011
0000000111011010
0000001111101100
0000001011101010
1111111111000100
0000000100000100
1111111100110100
1111111010001110
1111111000110100
1111110011010101
0000000010000011
0000001010111011
1111110101011001
1111110100011011
1111110011101111
0000001011010011
1111110000110111
0000010000001000
1111101110111101
0000001001011111
1111110010010100
0000001011101110
1111101110111100
0000001000011100
1111110000110100
1111110011111110
0000001100011110
1111101010001010
1111101111011110
0000010000100000
1111111011000111
0000010101110100
0000011011101001
1111111110011110
0000011011010000
0000001000111101
1111111100010010
1111111110001111
0000001001110001
1111111011100000
1111111001001110
1111111010101111
0000000101110011
1111111001000111
1111110111110111
0000001000111011
0000001100101000
0000000000001011
0000001001001111
0000000010001001
1111110100000110
0000001111100111
0000001001101110
1111111100000011
1111110110011101
1111110011100000
0000001001001111
1111110101011100
1111110110001010
0000011000010111
0000010000001111
0000011001100001
0000000001011010
0000000101100111
0000010010101111
1111111001001110
0000000000010110
1111110110010001
1111111011010111
0000010001001010
1111111011001111
0000000000010000
1111110111111101
1111101110111011
1111111011100110
0000001001001011
1111110010001000
1111110001010101
0000000100100110
0000000111111110
0000001101001100
1111110110011011
0000001010011000
1111110110110101
1111111100001101
1111111110100000
0000001111101110
1111111100101001
0000010100010110
1111111010001010
0000000110100001
0000001010110000
0000000010101110
0000000100110100
0000000100011111
0000000101010010
0000001011010010
0000001111111010
0000000110100110
1111110000010101
1111111100001101
1111111000101000
1111110101111101
0000001010001101
0000001011111100
1111111110111101
0000000100010100
0000001101011001
0000001001101100
0000010000110100
0000001011110101
0000001101001111
0000000000001101
0000010010100100
0000001010110110
1111110101010011
0000000010101101
0000000110111101
1111111010001101
1111111011100011
0000001111000001
0000001010000011
1111111000000011
1111110000001010
0000000010000010
0000000101011111
1111111100011010
1111110101011001
0000010000111101
1111111001010001
1111110011000111
1111111000011110
0000001111110110
0000001011001001
1111110100101001
1111110000001110
1111111001100101
0000000010110101
1111110011110111
1111111100101100
0000000111110010
0000000101000100
1111111010011101
1111110110000100
1111111111100100
0000000100001110
0000000110111010
1111111011011011
0000001011010101
0000001111010000
0000001110111001
0000010001110001
1111110000110010
0000001100011010
1111111011111010
0000010000101101
0000000101000000
1111110000111000
0000010001000101
0000000000110010
0000000100100100
1111111011101010
1111111000111101
0000001011111110
1111101111111101
0000000100001011
0000001011011011
1111111000010111
1111110010110111
0000001010010000
0000000001100110
0000000111110110
1111110101001111
1111110100111101
0000010000111001
0000001111001010
1111110110011110
1111110101001110
0000000010110101
0000001010101010
0000010000100010
0000001100011000
1111111100101101
1111111101111011
1111111111001011
0000001001100001
0000000111001001
1111110001000011
