0000000110000001
1111111000011001
0000001001010101
0000000001000101
0000001101010000
1111110011110100
0000000111100100
1111101110110110
0000000011011000
1111101111001000
1111110001001100
1111110010110111
1111110101101100
0000010010000010
0000001011011001
1111110001010111
0000001011111111
1111101110110110
1111111110110111
0000000010011101
1111111011111100
0000001110110110
0000000101110101
1111111110111110
0000001111000010
0000010001111111
0000000101011011
1111110000111101
1111110010000101
1111111001101001
0000000110101110
1111111110001010
0000010001100101
1111110000100011
1111111100101100
1111110010110010
0000001010011111
0000001000110011
0000000000101000
0000000001000001
0000010011110111
0000000011000001
1111111010111000
1111111110000010
1111110101100101
0000000111000100
1111110111110010
1111111000110100
1111101111001000
0000010000001100
1111111001111011
0000001101001011
1111111001001000
0000000001001110
0000010001000110
0000001100111111
1111110100110111
0000001001110010
0000001110111111
1111110001100101
1111111011111011
1111110001100100
0000000010001100
0000001100100110
1111110110100001
0000001100001111
0000000100000011
0000010111110000
0000001001000001
0000001111111001
0000000011101000
0000010101111000
0000011001001101
0000011011011001
1111111101110111
0000000111000110
0000000001111110
0000001100001110
0000000000101110
0000001100100101
1111111101010110
0000010001100110
0000000111101011
0000000101001001
0000001111100010
0000000010110001
1111110111011000
1111110111000101
1111111000111110
0000000101000111
0000000000100110
0000000010000011
0000011100001000
0000010111011100
0000010011101101
0000011101011110
0000101110110100
0000111001011001
0000110110100001
0000100101000011
0000101001011000
0000010100000010
0000001010000111
0000000110101110
0000011000100010
0000000000010110
1111110011000110
0000001011110000
1111110110111100
0000010010000010
0000001100111011
1111110011111101
0000001000100001
0000001011111111
1111110101000000
1111110000101001
1111110100101100
1111111101100110
0000000000101101
0000011100111110
0000100001000100
0000101000101101
0000111100110011
0000110101110101
0001000000100010
0000011101001011
0000100110011101
0000011111100001
0000100001001100
0000110000111100
0000100011100111
0000101101011100
0000001101101110
0000011100010110
0000000011010110
0000000000010000
1111100111111000
0000000110111101
1111101101001111
0000000110111001
1111111001110011
0000000101000011
0000001000111111
0000000101110011
1111111001101000
1111111101000010
0000011100001101
0000011111100110
0000011001101101
0000101010000111
0000110111010111
0000001101111101
0000001101011001
0000010110101100
0000001011110000
0000100001110111
0000000010001001
0000011011100001
0000100110011001
0000110010001111
0000001111111011
1111111110001001
1111110100000010
1111111110001011
1111110001000111
0000000001111110
0000001111001110
0000010000000101
1111111000001100
0000010001010110
0000000110100010
0000000011001000
0000001000100011
0000000110110110
0000001011110011
0000001011001000
0000001100110100
1111111000000010
1111100010000111
1111100111111000
1111110010110010
1111110110001101
0000000011111010
0000011010101110
1111110111100100
0000010100101111
0000001011100101
1111111100010100
1111110110000010
1111101011000000
1111110011011101
1111001101101011
1111010000111100
1111100011011000
1111111011010100
0000001010110011
0000000101001001
0000001001111111
1111110111110000
0000010010111010
1111111011100011
1111111010000011
1111101001100100
1111111000110101
1111001111001001
1111001000010110
1111010100101110
1111101101011000
1111101110000110
0000010000010100
0000100010110110
0000110101011010
1111111100101110
0000000011011100
1111110101110000
1111110001000010
1111101100110101
1111100101000110
1111000100011101
1110111111001110
1111010111010101
1111011000111111
0000001011100100
1111111011110000
1111111100110000
0000010001010000
0000001101001001
0000001010011111
0000000000100110
1111110001011110
1111101101111001
1111100010000011
1111010111011001
1111100011001001
1111101011000011
1111110000000100
1111101110101111
0000010011100110
0000110100100000
0000111001000100
0000000011000011
1111110110010100
1111001101010010
1111010000010101
1111010111011110
1111010100101100
1111000000000101
1110100111101100
1111000100100010
1111110000101010
1111101000011101
1111110101111111
0000000001111010
0000000100111000
0000001100011110
0000001000111010
1111110110000000
1111101010110010
1111100110010111
1111001001111111
1111000001101101
1111010100100001
1111110110101100
1111110111100001
1111011111001000
1111110100110110
0000011101001011
0000101010110010
0000000010111010
1111011010001110
1111011000100100
1111000001110010
1111001101001000
1110111111101100
1110110000101000
1110101001100110
1110101010100111
1111010111101110
1111101111100010
1111101101001000
0000000110011100
1111111101111110
0000000100100001
0000000110000101
1111100101001100
1111101000100000
1111010010000001
1111000100010101
1111100000111011
1111011100001110
1111010011100011
1111010001000100
1111000001111010
1111001100011110
1111110001011010
1111111010100010
1111110010111100
1111011001101000
1111001101011011
1111010111111000
1111011000011011
1110111001011001
1111000000001110
1110101110010001
1111000001111001
1111101001101101
0000000101101110
1111111101011101
1111110110011110
0000000101000111
1111110001011101
0000000110001111
1111110101111101
1111011010110110
1111001011111100
1111010011100100
1111010000000100
1111010010110110
1111010110100011
1111001010001110
1110011101011000
1110100101111111
1111001011101000
1111101000010010
1111110011101101
1111110100101100
1111110100100111
1111110000000001
1111111010110011
1111101000111010
1111010100101011
1111101110001101
1111100110110010
1111011101011011
0000000011111000
0000010000100000
0000001101110000
0000000110110000
1111101111110101
1111111010101001
1111100001010010
1111101110101010
1111011000001001
1111011010111000
1111010010010111
1111010100010101
1111111001101011
1111100011010000
1110111000011010
1110111000110001
1111011010001001
1111100010110100
1111101000001110
1111101010000011
0000001111100001
1111111110111010
1111111101010000
0000010100001010
1111110101000110
1111111100100101
0000000101110101
1111110000110110
1111110001101001
0000001011111010
0000010010001101
1111110011111010
1111111011100101
1111101001011010
0000000111011001
1111110100101100
1111111000010010
1111100100010010
0000000101001111
0000101000001011
0000010011101011
0000000110101111
1111100110101011
1111110101100100
0000010000010111
1111111111001001
1111101010001100
0000010100010110
0000001010100101
0000010000101000
0000000101110001
0000011010000111
0000010011001011
0000011001000100
1111111011010000
0000000011110100
0000001001000101
0000001111100100
1111101111001110
0000000010101001
1111110101010001
0000000100010100
0000000000111110
1111101110000100
0000001010100011
0000101100001001
0000111000010000
0001100010111101
0000111110011010
0000101010101101
0000010000100110
0000110110000110
0000100100001100
1111111100011011
0000001011000111
1111111110110100
0000001111011010
0000100110011001
0000011100101010
0000010110110011
0000011000111111
0000011000000010
1111111110000101
0000000111011110
0000010101011011
1111111011111000
0000000100010001
0000000100110101
1111111110110001
1111111101000010
1111111110100110
0000010101011000
0000111001110111
0000110111100011
0001001001000110
0001011100000101
0001010010000111
0001001110001000
0000100111111110
0000100001110010
0000011110011111
0000001001101111
0000000000000101
0000010111000000
0000000111011001
0000100010101101
0000011011111110
0000000101111101
0000011011101111
0000001111101101
0000010011000000
0000010011011100
0000001110110110
1111111110110101
1111110000001110
0000000110010101
1111110010000000
1111110101101101
0000001110010101
0000011111101011
0000101100110111
0000111111111010
0000101011011001
0000111100000111
0001011001100000
0001011000100111
0000011110101001
0000110001110110
0000100001010111
0000001111110101
0000000010101011
0000001101010110
0000100010001100
0000100010010111
0000011011000100
0000101000000110
0000010000100011
0000001110001101
0000100100100100
0000010111101101
0000001101110100
1111110000010001
0000000111110001
1111111011001001
0000000001011001
0000001100010000
0000000001110110
0000001011000101
0000100110111111
0000010101001110
0000010010110000
0000010011010110
0000101101100011
0000110000110111
0000100011001110
0000010110111111
0000100010001011
0000011101110010
0000011001010111
0000100011111101
0000111011000110
0000101100100011
0000110001110111
0000100001001000
0000100010111000
0000110110000111
0000010001100100
0000101011100000
0000000011100110
1111111001100100
0000000111101101
0000000110110110
0000001000110001
0000010011011101
0000000011101010
0000101001001001
0000010001011000
0000011111001111
0000010000001110
1111111111000010
0000101100110111
0000101111110010
0000100101001110
0000111110001110
0000100111001001
0000100101111000
0000111010010000
0000110010000101
0001001111111000
0000110011001010
0000110101000111
0000110101010111
0000100111011000
0000101100110110
0000100010101111
0000011000111000
1111110011001110
0000000000110110
0000010001111110
1111101110110011
0000000101001010
0000001011011100
0000100001110111
0000000100100011
1111110101101010
0000001001101100
0000011010100001
0000010110011101
0000101100010000
0001000101000101
0001000011111011
0000111110100100
0001001000011001
0001000000101101
0001011011001011
0001001011001011
0001001100011000
0000101000100011
0000110110111100
0000101011110000
0000111101110110
0000110010000111
0000101010000100
0000011110111110
0000001001100111
1111110101101001
1111110010011111
0000000011110000
0000001111000100
0000001101010110
0000100001101000
0000011011110110
0000000111010110
1111111001010010
0000010101101001
0000110001011000
0000101111011000
0001011001011001
0000111110010010
0000111011101110
0001010111100001
0001001001000010
0001100010101011
0001011010110110
0001010101010101
0001000111001100
0000101000010100
0000101111101110
0000100101111100
0000011100000110
0000101100000101
0000000000010000
0000001000111010
1111111010110101
0000000101001101
1111110100111100
1111110110010011
0000000100001000
0000010111001101
0000000011101001
0000010000100000
0000001100010110
0000010001111111
0000100101101100
0000100111010000
0000111010000011
0000101110101000
0000111000110010
0001001111101000
0000110111101010
0001010101010011
0001001010111100
0001000011110111
0000101000101110
0000100010101111
0000010101100110
0000011000100100
0000011001010101
0000100011100100
0000001101011100
1111110011001111
0000001100101001
1111101110000000
0000001110110001
1111111110101000
0000000100111101
0000000101110100
0000011010110110
0000001110111000
0000011000001101
0000000000010000
0000001101000101
0000010110100001
1111101011110101
1111011100101000
1111011101111111
1111001111001000
1111101111101100
1111110000100110
1111111110101011
0000001011000000
0000001011100101
0000001101111100
0000100001001101
0000001001100111
0000010011010001
0000001000010111
0000001000001101
0000001001101010
0000000000010011
0000001101000001
1111101111111001
0000001001101100
0000001010101111
0000000000001001
0000011110001001
0000010010111100
1111111001101001
1111101010011010
1111101000000100
1111000111111011
1110110001100010
1110101001011010
1110100000101101
1110010011011110
1110011001000000
1110101001111011
1111000010101111
1111101010001001
1111111100110111
0000001011010001
0000010000110101
0000010011010111
0000010101111011
0000010001011100
0000000001010101
0000001001100001
0000001011000111
0000000011000010
0000000111110111
0000000011000011
1111101110000100
0000001111100101
0000001010000101
1111111001000010
1111111111110000
1111100100010000
1111011111011100
1111000101111011
1111000100100100
1110111011001101
1110110001111100
1110100110001111
1110100010110101
1111001010111101
1111010000100101
1111100111000000
1111110101111111
1111110100110111
0000000100001010
0000000100111001
0000001111101000
1111110001100000
0000001010010011
0000001110011101
1111110100101101
1111111000101111
1111110010111000
0000001011000010
1111110111100000
0000001000100101
0000000001100000
1111101011000001
1111111100110101
1111111000110100
1111111000100000
1111111101000000
1111111001111110
1111111110111110
1111111111100101
1111111100101011
1111110001100111
1111101010111100
1111110000000100
1111110011010001
0000011000001001
0000010110101101
0000001111011011
0000010000011001
1111110001011010
1111111000110011
1111111000001000
1111111101011101
0000001100011000
1111101111001011
0000001010010011
0000000001100110
1111101110010100
1111111001101101
1111101111110011
0000000111010101
0000001001011001
0000000010000010
0000001001001011
1111110110110101
1111110100001001
0000000110010010
0000000100000101
0000001101000011
0000000001111010
0000010000001001
0000000000010111
0000000100011100
0000010010110001
0000010001111100
0000001101001101
0000001010010010
0000001110110001
0000000100110100
0000000111100011
0000000100010000
0000000010000000
1111111100001000
0000010000110010
1111111011110011
1111111110100111
0000000101000111
0000001011011000
0000001100010101
1111111110011011
1111110001010101
1111110010001010
1111111110101010
1111111111000001
0000001000010101
1111110011100011
0000000101011100
1111111101000001
1111111111001001
0000001010010000
1111110110110100
1111101111111111
0000000110000011
1111111000000000
1111110100110010
0000000101110100
0000000101101000
0000000000001010
1111110011001000
0000000111110101
