0000010000001000
-000001000000100
0000000011100011
0000000000100110
0000000101011000
0000000000101010
-000000111101001
-000000111010001
-000000001011110
-000000000010000
0000001111010111
0000000000001010
-000001110011010
-000001111110101
0000000101000110
0000010000110011
-000000001101001
-000001000010000
0000001011101001
0000001100001001
0000000110110110
0000010000111111
-000000011110110
0000010000110011
0000000011100001
0000000111011001
0000001101100101
0000001011010010
0000001011110111
0000010001001100
-000000101100100
0000001111001111
0000000100011100
-000001011111011
0000000101001101
-000000111000000
0000001010111010
0000010000111100
0000010011010100
-000001001010111
0000000100000111
0000001000010001
0000000011010000
0000001101110110
-000000101111100
-000000101011000
-000001000111011
0000001011111000
0000010011000001
-000010000010101
-000001000101101
0000001110110010
0000000111011111
0000001001100011
-000000110100101
0000000100111101
0000000101000110
-000000000011100
-000000000010000
-000000100011101
-000000000001101
-000001110110010
0000001100001110
0000010000110001
0000000001111001
0000001100111101
0000000111100011
0000001110101010
0000101010100100
0000011101101111
0000011010010101
0000101100011111
0000101011110111
0000001000110111
0000000111000011
0000011010011010
0000001101101000
0000000100000001
0000001010000000
-000001010001110
0000000000110000
-000000100101011
-000001100110100
0000001101010111
0000001101001010
0000001100111001
0000010000110110
0000000110100110
0000000001101100
-000000101100010
-000001100110100
0000001100010111
0000000111001111
0000011000111111
0000010001001101
0000100111000110
0000100000001101
0000111001000001
0000101100001001
0000101111100000
0000101000010100
0000110100000011
0001000001101011
0000101101000001
0000010011110111
0000010000001010
0000001001110000
0000010010101010
-000001100101100
0000001111001110
-000000000001111
-000010010010001
0000000100010010
-000000110011000
0000010001101110
0000000011011111
0000000011010110
0000001000000001
0000001110000001
0000011010010110
0000001101010001
0000100101100000
0000101100110100
0000100110000000
0000100001010011
0000101001111001
0000011110111001
0000100110010001
0000100111101010
0000101101110100
0001001001001000
0000111111111000
0000011110111000
0000110000111111
0000101000110110
0000011001100100
-000000110100011
-000001000111001
-000000011111011
0000010001000001
-000000101001101
-000001101000000
0000000010001010
-000000001110100
-000000111110001
-000001111101011
0000000101011000
0000001001110110
0000001000101100
0000001001001100
0000101001011101
0000000000010110
-000000100011000
-000000110010001
0000010010101110
0000000010010000
0000000011010111
0000000000111001
0000010001001011
0000100010111111
0000101011010000
0000000111111000
0000010101110001
0000010011110110
-000001110010101
-000000001110001
0000001101001000
-000010001101011
-000001001010101
0000000011011111
0000000000011110
-000000100110110
0000000001000100
-000001100010101
0000000111101101
-000000100001000
-000001010111001
-000001100010000
-000000101010111
0000000001100111
-000001000101100
-000001111000000
-000000110010110
0000000101100110
-000000101100001
-000001100111111
-000001100001111
0000000010110110
-000000010110111
-000000000110000
-000100110011011
-000001011110010
-000001011101111
0000000111110001
-000001000000111
-000001000110010
0000000010000100
0000000011110110
0000000100101100
-000001101111100
-000001001110010
-000001111010110
0000000010011010
-000010010110011
-000001000110011
-000010011100010
-000100010111010
-000000101001011
-000000010010010
-000001011011011
0000010111110010
0000011100111000
-000000000110010
-000010110110000
-000010100110110
-000101111011010
-000100111111000
-000101110101101
-000111111100011
-000111110100111
-000100110011011
-000001011010010
0000001100010011
-000001100010001
-000000000101101
0000010000101100
0000001101010110
0000001001011101
0000001000000000
-000011011001011
-000011110001000
-000100110000100
-000001100100100
-000101101101110
-000011110111110
-000100010011010
-000010001001011
-000001101001001
0000100101110110
0000010111111101
-000011110100011
-000100101000100
-001011000000011
-001001000111101
-001000100101011
-001010100110011
-001001110111001
-001000011011010
-000011011100111
-000010011111001
0000000100000000
-000000011001111
0000001111000001
0000000000010010
0000000110111100
0000001111001110
0000000100000111
-000011010101001
-000011000101011
-000011101110111
-000001100101000
-000100101111001
-000100101010010
-000011011001011
-000010011001111
-000001101010010
0000110110001011
0000010010111101
-000110001001111
-001001100101011
-001100110100101
-001110010101011
-001001111101001
-001010111111111
-001001000110001
-001001001010101
-000010110101010
-000000000000110
-000001000111000
-000001010111001
-000010000000000
0000010000111110
0000000001010101
0000001010001010
-000010010001001
-000011011111001
-000001011100100
-000001101000110
-000010001011001
-000011011111010
-000100010101000
-000011011000000
-000100101110001
0000001010001110
0000100011111100
0000010101101111
-000100110101011
-001010010101011
-001010101111001
-001000111100000
-000110110101000
-001000101001011
-000111001111001
-000101011001001
-000101101000100
0000000000101011
0000000010011110
-000001001111011
0000000110110000
0000000100000110
0000010001100011
-000000011101101
-000011101101010
-000000011100010
-000010101010110
-000001101011000
-000011000111101
-000101011011101
-000100000011010
-000111000011000
-000010100100001
0000001011011011
0000011001000101
-000001110000100
-000101100110001
-000100100001000
-000110001010101
-000100110011011
-000100010100110
-000100010100001
-000001011001110
0000001000100101
0000000101001100
0000000001111111
-000010000010100
0000001011011001
-000001001110000
0000001010101010
0000000000010100
-000001011001100
-000010111111010
0000000111011111
0000001000100001
-000010011101001
0000000010100001
-000010001000000
-000010111111000
-000010111111011
0000000010110101
0000000111100001
0000110111011000
0000100000001010
-000011100110001
-000010101110100
-000000011000111
-000100101100001
-000010110101011
0000000111010110
0000011001100001
0000011001011101
0000000001101001
0000001011010000
0000000111011000
0000000101110110
0000000010111111
0000000011010111
0000001110110110
-000000001010110
0000000101010100
-000010010011110
0000000100101001
-000001000010001
0000000010001110
0000001001110011
0000010110011011
0000000011001101
0000011101011110
0001000000000101
0001001011011101
0000110001110101
0000010100101001
0000010000111011
-000010010100010
-000010100011001
-000011000011111
0000000111111001
0000110011110001
0000100000101001
0000011010111110
0000000001010101
0000000010010111
-000001000011010
0000000010111110
-000010000111111
0000001111010101
0000000101000101
-000000010010111
-000010001110001
0000010011101010
0000001000001010
0000001010011111
0000010011111001
0000011101111001
0000100000110111
0000010111000101
0000111100111011
0001100011101001
0001000110011000
0000010101000110
-000010111010011
-000000110010010
-000001000110101
-000000001101010
0000100101110110
0000100001000011
0000100101100010
0000101001001000
0000000001000111
0000000100001100
0000001110110100
0000000001011101
-000000001010100
0000001111000001
0000001110111100
-000001100110110
-000001011111111
0000010010111100
0000011101100101
0000000100010100
0000011111111110
0000100100100110
0000101011111101
0000001101011101
0000111001011100
0001001000000100
0000011100101100
-000010001100100
-000010000101101
-000010100010101
0000010011100000
0000011100110010
0000100111001111
0000100100111010
0000100000011000
0000100011101110
0000000001011011
-000010011011110
-000000001100101
0000001100000100
0000001101010000
-000010000010000
-000000010011110
-000010111100110
0000000000111001
0000000010100010
0000011000000010
-000001000101010
0000010001111011
0000101110011000
0000101110111000
0000000100001000
0000010100001110
0000100110101011
-000000111101100
-000110010111101
-000010111000010
0000001100011110
0000011110001101
0000101100100010
0000100111011111
0000011000001110
0000010000001010
0000000111011101
0000000010000101
0000001101000001
-000001000110001
-000000101101000
0000001110000000
-000000111100111
0000010100011100
-000001001100110
0000001101101101
-000000111010100
-000000010101001
0000001010110110
0000000100111011
0000100011110100
0000100010111011
-000000111111100
0000010000001001
0000001011110011
-000001011101010
-000101101110011
0000001000100000
0000100001011000
0000110011101111
0000011100000011
0000110101001100
0000100011010101
0000001101000000
0000000011011010
0000010011001010
0000010001000011
0000000000110101
0000000010110100
0000001110110011
0000000110000010
0000001010100110
-000000110010110
-000000110000111
-000001000000011
-000001000000100
-000000010001110
0000010100111001
0000101000100000
0000011110011100
0000011100110100
0000001110110111
0000001100000100
0000010010111000
0000100000001110
0001000011010100
0001010111000010
0001000010100010
0000111100001100
0000101100110100
0000011010000010
0000001010110111
-000001100101010
0000000100011010
0000001110101101
-000000100101010
-000000111110000
0000000010111101
0000001111010110
-000000101001111
-000000001101110
-000010000111010
-000011001110111
-000000010000110
0000000100111010
0000100000000000
0001010011011000
0001100011100101
0001101101000011
0001010100110010
0001000110000101
0001001011101001
0001010010110001
0001011000110110
0001001100011000
0000111100111101
0000110110111000
0000110000001100
0000010101010110
0000010111100011
0000010001110010
-000001000000110
0000000101100000
-000001010011001
-000001000011100
-000000001010110
0000001011110100
0000010010001010
-000000110111100
-000001100100000
-000010011010010
0000000110000101
0000101000011011
0000100111011000
0001100101000000
0001110110001010
0001101110100000
0001110000100111
0001110011101110
0001101100010000
0001100101011001
0001011001010101
0001001100010100
0000110001001110
0000100101101111
0000001111000000
0000010000111010
0000000010110010
-000001010000111
-000001110100110
0000001001100001
-000001101010100
-000001011001001
0000001111011010
0000001001100101
0000001010110001
-000000001001110
0000001100011010
-000000110101101
-000001100111000
0000000010010010
0000101110010101
0001001011111001
0001001100110110
0001100001111000
0001101010110101
0001101101010001
0001101110101110
0001011011010100
0001001011101110
0000100001111001
0000011011010011
-000001011010111
-000000110000100
0000001001000011
-000000100101011
-000001011100010
0000010000010001
-000001111010011
-000000011110100
0000001100000010
-000000100110001
0000001101001110
0000001110111000
0000001001110011
0000000001110110
0000001000101011
0000000001110011
-000000001101010
0000010000001111
-000010010110100
-000011001101101
-000001111011100
-000000100010100
-000000101000101
0000000110100010
0000001011010000
-000001010011101
-000000110100111
-000010101000011
-000001111010010
-000010001110000
-000000011111011
-000001110001100
0000001100000110
-000001101000010
-000010000010100
0000001001111110
-000001011001011
-000010000011010
0000000101011001
-000001001000110
0000001010000110
0000010000100101
0000011000011100
0000000111101100
-000010010001001
-000100001010110
-000110110101011
-000111011100100
-001100001011101
-001000110110011
-001011011011010
-001000011111111
-001000101010110
-000100001001010
-000101110110111
-000100110010101
-000001100010010
-000000011001101
-000001110110000
-000001101111000
-000001010101101
-000010001110011
-000001000101011
0000000010101010
0000001100001001
-000000011000100
0000001110010010
0000001001001010
-000001110100111
0000000111010001
0000010111000110
0000000101010010
-000001010101011
-000011001000010
-000110010010101
-000100101101000
-000110010111011
-000101111101100
-000101101111110
-000101011010110
-000111000010101
-000100000100100
-000010000010110
-000001001110001
-000011010001010
0000001001000100
-000001100011010
-000001000001111
-000000010010111
-000000100010000
0000001100000101
0000000110011010
-000000011001111
0000010001010101
0000001101101011
0000001100101111
-000000011011101
0000001001101010
-000000110001011
-000010010000101
-000000011011111
0000001011001110
0000001101000100
0000001001111101
0000000111000011
0000001111011001
0000001101101110
-000010100010010
0000001100010001
0000000010101111
0000001010001110
0000001000010001
0000001011011100
0000000100000110
-000000000000100
0000000010001111
-000000100010001
-000000100100111
0000000001010111
0000010001010110
-000001000001010
0000001100000111
-000000111000011
0000001100000100
-000001101000101
0000000000000001
-000000011101110
0000000010110000
-000001100110111
-000001110111011
0000000001001100
0000000011011100
0000001110100011
0000010001111110
-000000100000001
0000001000010100
-000000011110111
0000000011000110
0000001110100111
-000000001111010
-000001001010000
-000000110010010
-000000101111011
-000010000000000
-000001110111010
0000000001001010
0000010001111111
-000000010101100
-000001001110100
-000001110010110
0000001101001010
0000001110111011
0000000101111101
0000000011100010
0000000101101000
0000010000001100
-000000011000011
-000000101001111
-000001110011001
0000010000011100
-000000101001010
0000001101011110
-000000011110111
0000000011100110
0000010001010111
0000001001010110
0000001101100101
0000010001110011
0000000000101110
0000001010010000
0000001011010000
-000001010110011
0000000010111011
-000001111011011
-000000110010101
0000000011001011
