1111101110100110
1111101110110010
0000000010000011
1111110011000011
1111111101010100
0000000111100011
0000001111000100
0000001101110101
0000000000001011
1111110000010101
1111111101010010
1111111011110100
1111111110011111
0000001000100011
0000001110001101
0000000100001001
0000001000110000
0000001100000101
1111110010100000
0000010000100011
0000010010001110
1111111000111011
0000010001010010
1111111100001101
1111110111000010
0000000101110110
1111111101101101
0000000100011110
1111110110011000
0000000110100111
0000010001001000
1111111011011000
0000000000011111
0000000010111111
1111101110011000
0000000010000110
0000000000111100
1111110110011000
1111110000111101
0000000001010110
0000001110111101
1111110010100111
1111111001101111
1111110111000111
1111110100100000
0000001110001011
0000001101100010
1111111000001100
1111111011111010
0000001000010100
1111110000110010
0000001011110000
0000001011010110
0000001100001000
0000000011001000
0000001001100001
0000010001001110
1111101110010011
1111111011101100
1111110011100110
0000001001010000
1111111101101010
1111110001000010
1111110011001101
0000000101001001
1111111100101110
1111110001101010
0000000101001100
1111111010111000
1111111101100111
1111110011101011
1111110101010111
1111110001010101
1111111011110000
1111111101001101
0000001011110101
1111111001011101
0000001011110011
0000000110101110
0000001100111111
1111110010110011
0000001000011001
0000010000101111
0000001011000001
1111110100011100
0000000011100000
1111101111010101
1111110111100100
1111110110111101
1111111110110001
1111111011010001
0000001001010000
1111110101010111
1111101011100010
0000000110001110
0000001110011010
0000000110001011
1111111111011010
0000100001011110
0000011011000011
0000100001110101
0000010010100100
0000000111100101
1111111000010010
0000000010100010
1111111101000100
0000000011101010
1111101111010001
1111110101101111
1111111000101100
0000000010100000
0000000100110110
1111110000101001
0000000100001100
0000001000001011
0000000110111000
1111111000000001
1111111011111101
1111111000011000
0000000100100101
1111111001101001
1111111000000111
0000011111101101
0000001011001101
0000100100110010
0000110000111001
0000101010010111
0000110010100101
0000101101111100
0000001100110110
0000101000111001
0000001101111000
0000000110110001
0000010000100111
0000001001011010
0000001010011001
1111110101111000
1111110101111000
1111101111100011
1111111100100111
0000000010101100
1111110011101100
0000000010010111
1111110111111101
0000000010101010
0000000011011101
1111111001001000
0000011011001101
0000010111001000
0000011010100011
0000001001111110
0000010010000011
0000101101101100
0000011011000100
0000011100000010
0000011101001011
0000100001000100
0000011011010010
0000010111101011
0000101000110101
0000110001011000
0000100100100000
0000010010010110
0000011000110111
0000010111111100
1111111011101000
0000010011000000
0000000000101000
1111110110101111
0000010001001100
0000000001010110
0000001011000010
0000001000111011
0000000000011001
0000011100001111
1111111011111011
1111111110101110
0000000011111101
0000001100000001
0000100101110111
0000011100111111
0000101011100001
0000101110000011
0000100001000001
0000011101111111
0000010011010110
0000110101111111
0000100000110110
0000101111001010
0000101111011110
0000100000000100
0000011100000010
0000101010111101
0000101000110110
1111111111101001
1111110110000100
1111111111100010
1111111100001000
0000001010011001
1111110100101111
0000010001001011
1111111110101101
0000000111000010
0000011001101001
0000001100111111
0000010000101100
0000010110111100
0000011110110110
0000101111011011
0000111110100011
0000111111100010
0000011110010011
0000010000101110
0000011011101101
0000100010011010
0000111010101011
0000110000101100
0000010111001011
0000011000100011
0000101011011011
0000110011011111
0000101100110101
0000011100000111
0000001001111011
0000001010010011
1111110100111000
0000001001011010
1111110011011100
0000001000011011
0000001100101110
1111111001111001
1111111000110001
0000000001001010
0000010100110000
0000001100100101
0000010010011111
0000101111101110
0000101101101001
0000100000001011
0000100100001010
0000000110011110
0000001001111101
0000011000000000
0000100011000101
0000011000110011
0000011010000100
0000010010101101
0000110001001000
0001000010000111
0000111101111100
0000010000001000
1111110011001100
1111111110100000
0000001010000101
0000000100101111
1111111001100101
0000000001001000
0000001011101000
0000011011001010
0000011010011100
0000000010001001
0000000011100011
0000010101001001
0000100010110011
0000010000110010
0000001101100001
0000100011101000
0000101111010111
1111111110001011
1111110110111000
1111101011000101
1111111000001010
0000010010001001
0000010110110100
0000010001110110
0000100001000110
0001011000111110
0000111101001011
0000011111111000
1111111100011000
0000000000111110
1111111110011110
0000000110011100
1111110010111110
0000010100011011
1111110010110000
0000001010101010
1111111000010110
0000001010011010
0000011101000111
0000010011101101
0000000011000110
1111111000111100
0000000010100111
0001001010000110
0000111110101100
0000011011000110
1111101101101010
1111101000001011
1111101011111001
1111101011011100
1111100011110010
1111100000110010
1111111001110010
0000111110110001
0000101110010101
0000001010100100
0000001101100010
1111110101101110
1111111011101001
0000001110011110
1111111110011111
1111111000101111
0000000111010101
1111101110100000
0000001010101110
0000001000111010
0000001000000100
1111110110110100
1111110001010000
1111101100000110
0001010101011001
0010101111100111
0001111101010000
0000010100100001
1111101001011110
1111101110000000
1111001100011110
1110111110110100
1110100011110100
1110101101100001
1111011010100101
1111111100010111
0000101000101001
0000010111011011
0000000011111010
0000001010111101
0000010001001000
1111101111101010
1111110111101111
1111111111001101
1111111101111010
1111100110110101
1111111100111110
1111111111000111
1111111011110001
1111111101001110
1111110001101111
0000001011110101
0010000001011001
0011010111110000
0010000011101000
0000010101101001
0000001001000001
1111101001111111
1111010110110100
1111001100011100
1110010100100110
1110100000010011
1110111000010010
1111011100101001
0000001011000010
1111111110010000
0000000011100110
1111111101001110
1111111000100111
1111111010001001
0000000111011100
1111111000001100
1111011010010010
1111010000111100
1111010010001010
1111111110100111
0000000110011010
1111011100010011
1111100000010111
0000110000000101
0010101001011110
0011010011100001
0001110111101100
0000001101101011
1111111011001011
0000000111001101
1111100011111000
1111001111111000
1110100100110001
1110100100100101
1110100011110000
1111010010101111
0000001001111101
1111110111100100
0000010001011101
0000001011001010
0000010001100110
0000001100101111
0000000010100000
1111100011001101
1111100010010011
1111001100010111
1111000100101100
1111010100011100
1111111111011011
1111011001011001
1111100000100100
0000101010101011
0010011101011011
0010111100010011
0001110010011101
1111111010110011
1111100110010111
1111101110110111
1111101000000011
1111001101101101
1111000010110011
1110110000001110
1110111001110001
1111100110001101
1111110001010010
0000010001001111
0000010000000001
1111111111100001
1111111010110100
0000000000010011
0000000101001110
1111111101111010
1111000001000011
1110111100010001
1110011100001011
1110101011000010
1111011110110010
1111011100101111
1111101000111001
0001000010110011
0010100010101000
0010111001010100
0001000101001101
1111011111111001
1111001101000110
1111100110011101
1111101011011110
1111010000101111
1111101100010000
1111010001111000
1111010001010001
1111100100001011
0000001101111000
0000000100010111
1111111011010010
1111110010011011
1111110110111101
0000001011010111
0000011000100111
0000000101000000
1111010000011110
1110101001100111
1110001101110110
1110010100110100
1110100101010011
1111010001101110
1111110100001000
0000111110010111
0010001111110001
0010000110010010
0000000101111010
1111011100000101
1111000010101101
1111101010011011
1111101100011111
0000001001001111
1111101111000101
1111111000000000
1111111001100001
1111110001111111
0000000000101000
1111101110100100
0000000110101010
0000000001101100
1111111110010111
0000000001101110
0000011110000010
1111111001000110
1111010011111010
1111011001100001
1110111111011101
1110100000000100
1110100001010000
1110110001011101
1111000111111111
0000000100111110
0000111100011100
0000100000100011
1111100111000011
1111100101001111
1111110011110011
1111111010001010
0000001111111110
0000010110101101
0000110000001110
0000001110110001
0000011000001100
0000001011011110
0000000001100010
1111111100001010
0000001001100010
1111110011100010
0000001111011001
1111111000110010
0000010011001001
0000010110101001
1111101101100000
0000000010011110
1111110001000011
1111010001111101
1111001110110001
1111010010011110
1111100000000110
1111101011010001
0000101001010100
0000011001111011
0000001001111010
0000000010101000
0000001011001000
0000011111011111
0000101000111001
0000100011110100
0000110000101101
0000100011110011
0000001000100111
0000001001100110
1111111011000000
1111111101101101
0000001001110111
0000001101011100
0000001001001101
1111111010010010
0000000111011110
0000100111110010
0000010110110100
0000100110111100
0000100111110100
0000100101100000
0000010010100001
1111111010110101
1111110111001110
0000001010100001
0000101010101010
0000001001000101
0000100000101110
0000001101001100
0000111001011110
0000111101000111
0000111010011110
0000110010101010
0000100111101010
0000011011000100
0000000100001100
0000001100100000
1111101110110010
1111111111011100
1111111010101000
0000000110111110
1111111101100101
1111111100010110
0000101000111010
0000100001101000
0000011101010010
0000100111111011
0001001010001000
0001011110011000
0001010000110100
0000101100100111
0000000111000101
1111110110111001
0000001110111100
0000000010111100
0000100001011001
0000101000000110
0000101110101100
0001001001111110
0001000010101010
0000111001111111
0000110001111111
0000011010010001
1111111010100101
1111111011100100
1111111011000000
0000001000110010
1111110110001001
1111110011110110
0000001011100101
1111110000110100
0000001111000001
0000010011011011
0000010110100110
0000110100010011
0000110111110100
0001010011100110
0000111101100111
0000101001111110
0000001000011101
0000000110101111
0000000101000111
0000011011001001
0000101100000110
0000100100101111
0000111011110100
0000110101000100
0000111110111011
0000100010101011
0000100011010101
0000010001011010
0000000011011101
1111111110000010
0000001101001000
0000000001100011
1111110101011101
1111110111000001
0000001101000011
1111111111011010
0000000110001110
0000001011001100
0000101100111101
0000100111011111
0000101100111001
0000010100011011
0000111001011101
0000010101100001
0000001111001111
1111111111111010
0000010011000111
0000011100000111
0000100011010010
0000110101100010
0000101110010001
0001001001101101
0000011111000000
0000011011010010
0000000011010111
1111110110101111
1111111011110101
0000000100110010
1111110111111100
0000010010000100
0000000110010111
0000001101111100
1111111100010010
0000001110000101
0000000000011100
0000001100110111
0000011011100110
0000100101111011
0000011001111000
0000010101110111
0000101101101000
0000010100101100
0000011011101110
0000100101010111
0000100101101000
0000101111101111
0000110011110000
0000111011101101
0000111011110011
0000011010111000
0000101011101000
0000000111011101
0000001001110001
0000000101011110
0000001010111010
1111110001011100
0000010010101010
0000001011111001
1111110011101010
0000000101001110
0000001000001111
0000000101111111
1111110010110100
0000000110011000
0000010010101000
0000011011110101
0000011000001010
0000011001000011
0000011010010111
0000111011010011
0000110001111110
0000100110101101
0000110011000001
0000011001100010
0000010110011000
0000011010101001
0000000111010000
0000001111000000
1111111101000011
0000000001111010
1111110111000011
1111111001100101
0000001011010011
1111110101000010
0000000001000100
1111111010000101
0000000101100111
0000000011100101
0000000010100100
1111101110000100
1111111000010101
1111110101100010
0000001011111010
1111101110101101
0000000100001101
1111110101111111
0000000101000000
0000011100010011
0000001110110001
0000110000000110
0000011000010111
0000100010011100
0000010010100100
0000011010111000
0000001111101111
1111111011010111
1111110101011111
0000000011010111
0000000110001010
0000001100100000
0000001100100001
1111111001101001
0000001110011100
1111111010110011
1111110110110001
0000001101110000
0000000100110110
0000001111110000
0000001111000000
1111111111101111
0000001011100111
0000000101101101
1111110100000110
1111111110101100
0000001100101010
1111111010100011
0000000001010101
1111111001110010
0000001010100010
1111110010111010
0000000011010011
1111111111101000
0000000100111110
0000001001111001
0000001011010111
1111111000001110
1111110000111111
1111111001000001
0000001000010111
1111110111101011
0000010001110010
0000010000001111
0000000011111111
1111110100110101
1111110110010001
0000010000111111
1111111110111000
0000010000001001
1111111000011111
1111111111000011
1111110100111001
0000010000011001
0000000101101011
0000001101110000
1111101101110111
1111110010010010
0000001100111110
1111111010010010
1111110110111110
1111101100011110
1111111000111100
0000000000011000
1111110001111010
0000010000110110
1111111111100010
0000000101001101
0000001011110001
1111110111000010
0000000101001001
0000001110000010
1111111001000101
