1111101110011100
0000001010010100
0000000111011101
0000000101001110
0000000100101001
0000000001000000
1111111001101101
1111110000000111
1111110110111001
1111110110000011
0000001101011111
1111111001111010
1111111001011000
1111111101110100
1111111100100110
1111101110101111
0000001100001101
0000001000001110
1111111100110101
1111111111011110
1111111010010000
1111111011001111
0000010001011011
1111111111010000
0000001010111001
0000001111101100
0000000101110100
0000000000010010
1111110101111000
1111111000101010
1111101111011100
0000001101111000
0000000001011010
0000000010010011
1111101101110101
0000001111100001
1111110110010000
0000000100011000
0000000010111001
1111111000010111
1111111010001011
0000000010010111
0000000001100100
1111101100110111
1111110010101111
0000000101111100
0000001111011101
1111110011011001
0000000110001011
1111110010000111
1111111011110000
1111111001101000
1111101111100101
0000001001000110
1111111011011100
0000010001011000
1111111001110110
0000001111110100
0000001001001111
1111111110110010
1111111100100011
1111111011011100
1111110011010000
0000001011010001
1111110010101010
0000000100011100
0000000000101000
1111111111001111
1111111010111000
1111100100011000
1111100011111010
1111111110100110
1111110000000000
1111111101100111
0000000101100100
1111101100001110
1111111010010100
1111101111110110
1111110100011010
1111110110110110
0000000101101111
0000000111111010
1111111000101101
0000000000001111
0000001101000111
0000001101101000
0000000110011111
1111111110000100
1111111011101000
1111111111101011
0000001111110100
1111101101100100
1111111100001001
1111111101111010
1111111001001000
1111110100101000
1111110111011001
1111100100011110
1111101001100010
1111101000000000
1111110000100111
1111111001010010
1111111110000111
1111110010101011
0000001011011000
1111110100111011
0000000010010011
1111110011111001
1111110100010110
1111110010100011
1111111100000101
1111110110110110
0000001001001010
1111110110000110
1111101101110100
0000010000100011
0000000000000111
0000000000000101
1111110110000110
1111111001010111
0000000010000100
1111111101100110
0000000101010110
0000001101111100
1111110100001111
1111100100001100
1111110000101010
1111110101000101
0000000010101101
0000010110110110
0000010011110001
1111111101111111
1111101100000000
1111101011100101
0000001111001110
1111110010110100
0000010001101010
0000010000000101
1111111011111001
1111110110010101
1111101110000111
1111110001001001
1111101101101001
0000000011000111
0000001111110000
1111110010010100
0000001101000111
0000001101001110
1111111101011011
0000010010101111
0000001101011101
0000011111011011
0000010110011000
0000000011111011
1111110000100101
1111111101110101
0000011100101010
0000010000110101
0000001011000110
1111111011101111
0000001101010111
0000001010011001
0000001011101110
0000010101001100
0000100010111011
0000011001111101
0000001110010111
1111110001010010
1111101111000001
0000001101000011
0000000000001000
1111111101100001
1111111111111010
1111110100101000
0000000001000001
0000001110011011
0000111001110000
0001001000111000
0000110111010101
0001000100001101
0000100001111100
0000110000110011
0000011110100001
0000101011110011
0000011011101111
0001000000000011
0000111000101100
0000100101001011
0000010111101000
0000010001000011
0000111001011101
0000100010100111
0000100100011111
0000100011001100
0000001000000100
0000001010000111
1111110001010000
0000010001011000
1111110100110111
0000001011010101
0000010000010001
0000011001110001
0000101101101100
0000101010100101
0001000001001010
0001000101000110
0001101011101101
0001100011001101
0001000110011100
0000101110000011
0000110101110110
0000011110111111
0000110100010101
0001000110011000
0001000011010100
0000101101101110
0000101111010100
0000100111011100
0000110101001101
0001000010000101
0000110000100110
0000100110011100
0000001100011001
0000000011010001
0000001111010000
0000000000110000
1111110110001011
1111111111111010
0000001111000101
0000010011010001
0000100010001001
0000100100000110
0000110010111100
0001010111100110
0001010110111110
0001100101100011
0001000100100111
0000100111010001
0000111011011000
0000110111110100
0001001011011110
0000110100100011
0001000110111011
0001001000110011
0001000110010010
0000111011010111
0001010110011000
0001010010000010
0001000111010111
0000111101101011
0000001000101100
1111111110001011
0000000011000100
0000001001111011
1111111001000110
1111111010101001
0000001011101100
0000001100001001
0000101001011001
0000001111100000
0000111110011100
0000110011001011
0001010011010011
0001011110001001
0001001000110001
0001001000111000
0000110000001001
0000110110011101
0000111010000111
0000111111111111
0001000111001001
0001011001000011
0001010001001010
0001011001100010
0001011110101111
0001100111001111
0001011000101011
0000100110011000
0000010010011011
1111110010111000
0000000111001010
0000001110001111
0000000110111110
0000010111100110
0000000111000000
0000010001100101
0000001110110001
0000011001110110
0000100101101101
0000111111110001
0001010001010101
0001011110100001
0001001101100100
0000111001111110
0000001001101100
0000010111110010
0000111001110011
0000111010111001
0000111100011011
0000110101101100
0000110111010000
0001001000110100
0000110001111111
0000111100111110
0001001010110101
0000010100001001
0000010110001100
0000000111011001
0000000001101001
1111110111101011
0000001010010111
0000000000101111
0000010011011010
0000000001011010
0000000110000000
0000010110101000
0000100010111011
0001000100011001
0001000010001001
0001000111101111
0000110011001000
0000001011011111
1110111011010110
1111100001001010
1111111001000100
0000100100100001
0000011000010011
1111111110010001
1111110000111000
1111101010000100
1111110011011110
0000001101010011
1111111100011001
0000000001101010
0000000110111111
1111110000101110
0000001101110101
1111110000000110
1111111011000111
0000000010111111
0000000001000101
1111111111110101
0000001010110001
0000001101111010
0000111011000110
0000101000000110
0001001101101100
0001100110001111
0000101010101100
1111010110110010
1110001011011011
1110101101000111
1111001010001010
1111110101100101
1111110101110000
1111110000010100
1111010110101111
1111000110010000
1111011100000110
1111011001110010
0000000111110111
0000000110001010
1111110101110011
1111110000101001
0000000110111110
1111111010111101
1111110110110010
0000000100000110
0000010001000101
0000000101001101
0000010001110000
0000101001101011
0001000000101011
0001011101001011
0001100000110110
0001010111000000
0000010111100000
1110101101101000
1110001000101101
1110010010100110
1110111001110010
1111101111101101
0000001001011000
1111111101111100
0000000010111111
1111110110011011
1111011111111000
1111111111101001
0000001010001110
0000001101001010
1111110011000101
1111111101011001
0000000101010011
1111101110001110
1111111001010000
0000001100011110
0000001100011011
0000011010001111
0000100010100011
0001000100010011
0000101111000101
0001001000111111
0001011000001010
0001001001110001
0000001011001001
1111010011000100
1110001110000011
1110100010001010
1111010010011110
0000010011011001
0000110011011010
0000111100101010
0000011101000011
0000010111000010
0000000010100111
0000001010111011
0000001000010101
0000001010000100
1111111001100100
1111110101110000
0000001100001111
1111110100001010
0000010001111010
0000001110000101
1111111001000110
0000100110000110
0000101000111011
0000101000010100
0000100010011111
0001000111010011
0000111011101000
0000110100100001
1111110111011010
1110111000010010
1110110101000100
1110111101110010
0000001100001111
0001010000101101
0001110110110101
0001001000001100
0000110100011111
0000101100100011
0000101100111010
0000010001000001
0000010110011100
0000001111000010
0000000110111110
1111110001101111
1111111010100101
0000000011010000
0000001010000011
0000000111010010
1111111011111001
0000100000101101
0000101010100100
0000101111001001
0000000111000010
0000001001110111
1111111001001000
1111111001110101
1111101110110101
1111000100011001
1110101100011101
0000000110111010
0000111000001000
0001100011011110
0001110110011100
0001000010000101
0000110111010001
0000101110110001
0000100110010111
0000100000100001
0000001010110010
0000001000100001
0000000001111110
0000000010011000
0000000000010011
1111111101110100
0000000100110111
0000010001001001
0000010110100010
0000110000100100
0000110111010011
0000110001100110
1111100111010101
1111010110000100
1110111110100101
1111000011000010
1111000110110110
1111010000000001
1111010000011011
0000010000111100
0001100111000100
0001111101001101
0000111111011011
0000100110010010
0000101000010100
0000011100111000
0000011100100011
0000101111000011
0000000111000110
1111111000011000
0000000010001000
0000000111011101
0000000100111011
1111111011011010
0000000000101000
1111110010100111
0000001111000110
0000110101010000
0001011010110110
0000110000011011
1111101100000000
1110111000111010
1110110101101100
1111001111100101
1111001000011000
1111100000011111
0000000110100101
0000101000011101
0001001001101110
0001000110101101
0000010011010111
0000010101101111
0000011000010101
0000010111011110
0000100110001010
0000101001010100
0000010110100101
0000001111001100
0000000010010011
1111110010000000
1111101111001100
1111111001010001
0000001111111110
0000010001000100
0000100101000010
0000111010001011
0001011110001100
0001000111101111
0000010111000100
1111101111000011
1111010001010010
1111101100011100
0000001011100100
0000011010100100
0000011101111111
0000110000011110
0000001010110010
0000010111100000
0000000011110010
0000000000110111
1111111100111011
0000010110001010
0000001000011111
0000001010010000
1111111100001100
0000010001000010
1111110011101101
0000000110011101
1111110100100111
0000001011011010
1111111001111111
1111111111011011
0000010101110000
0000011000100101
0000101110110101
0000100001000011
0000100101101011
0000001001100100
0000000101111111
0000000101110011
0000000010010110
0000001110110110
0000000100010001
1111110101110001
1111110010011111
0000001110011000
1111110011011011
1111110111000010
0000010010000011
0000001000001010
0000100001101100
0000011011001000
0000001000100000
1111111111110101
1111110000110001
0000010001001100
0000000110011011
1111111111100010
1111110100000111
1111110100000111
0000001011010010
0000001111000101
0000001110110110
0000000011101100
0000001101011100
0000100000010101
0000001011101110
0000011101010000
0000011111010100
1111111100000000
0000000000110100
0000000110101100
0000010110010000
1111111111000000
1111101101100011
1111111111010100
0000011001001011
0000010110111010
0000000100101000
0000011100001000
0000000101110100
1111110101100000
0000000111010001
1111111101011100
0000001100110110
1111110001101000
0000001100010111
0000000011100110
1111110110011010
1111110001011001
1111111000010101
1111111101000010
0000010101100001
0000011000000000
0000010001110001
0000101110000010
0000101101001010
0001000100111110
0000110101001110
0000101110111000
0000100110000100
0000100100000110
0000010001000010
0000001011101111
1111111111111110
1111111001001001
0000000110100111
1111111101001001
0000001010000010
1111111101100001
0000010000000001
1111111010000001
0000001011011010
1111110111000100
1111110101001100
1111111001011000
0000001111100110
0000000000100010
1111101100011100
0000010000011000
0000001011001011
0000011110000101
0000111100010010
0000111001110101
0000111101011001
0000110000101111
0000111001100000
0000110100100000
0000011010111011
0000011110100100
0000000001011001
1111101101111011
1111101001101011
1111110111000110
1111110111001010
1111111000000101
0000000101011101
0000001010011000
0000010001111110
1111110010101111
1111111010111001
1111101111001101
0000001010111001
1111110111011111
0000010101100010
0000010111111101
0000100001000101
0000100011110000
0000011101000001
0000100001111001
0000101111110100
0001001010110001
0001000011101101
0001001001001001
0001010001000101
0001000011001001
0000011011100001
0000001010100111
1111101010111100
1111110101110010
1111111001011101
1111111111110011
1111111000111000
0000000010001000
0000001101110001
0000000110111111
1111110101100110
1111111111110001
0000001001001100
1111110111110011
1111111010000000
0000000111101010
0000010010000001
0000000111101011
0000011000001010
0000010000011111
0000100000101000
0000101010100010
0000101100011010
0000111110001110
0000100101100010
0000111011100001
0000101011001011
0000011100010100
0000011011010000
0000011001101110
1111111010111000
1111101001001001
1111101010110101
0000000001010000
0000000011000111
1111110111010011
0000001110110101
1111110110000001
0000001111100011
1111111001010110
1111111101011100
0000001110110011
1111111011111001
1111110101010110
1111110011110001
1111111000111000
0000000011100101
0000000010100100
0000010101110011
0000010110100001
0000010111110101
0000011101100100
0000001110100011
0000100111010110
0000100000001101
0000100100000110
0000001011110101
0000011000100011
1111110101100011
1111111001001011
0000000010110011
0000001110001011
1111111011110111
1111101111011111
1111111110110011
1111101111110010
1111111011111011
0000010001000010
0000001001100100
0000010000001010
0000001100010110
1111111011001010
1111110001010110
0000001111001010
0000001111001101
1111110010100000
0000001001011100
0000000101001100
0000001110001100
0000001110111001
0000000011000001
0000010110110100
0000001100100001
0000010000000101
0000001011001111
0000000000100000
1111110100100001
0000001100101000
1111110101011110
0000000001110010
0000001101010011
1111110100001111
1111111101101010
1111111111101101
0000001010110100
1111110100011110
