0000001111100011
0000001000111011
0000000101010011
1111111111011010
1111111000110010
1111110100101001
1111110110001100
1111111111100000
1111111111110111
1111111101111010
1111111101101001
0000001101110110
0000000001111110
0000001011100011
1111110100010100
0000001110110100
1111110010000010
0000010001100101
1111101101110100
0000000100000101
1111110100101101
0000000010011100
0000001000011101
1111110010010000
1111111011100001
1111111010110010
0000000100000011
0000000110001111
1111111001111001
1111110010100101
1111111111101011
0000001100101000
0000000101010100
0000000101100110
0000001010001101
0000000100110001
1111110011011110
1111111100000011
0000000101111011
0000001111100111
0000000100000001
0000001111011100
1111111110111101
0000001101101100
1111110110101011
0000001001101100
0000001000100001
0000000111000100
1111110011000000
0000001011101000
0000000100010000
1111111101001111
1111111101100100
1111110001100101
1111101111101011
0000000001111001
1111111111011001
0000001000101000
0000000100111110
1111110100110000
0000010001101100
0000000011101000
0000000011100010
1111101111110100
0000010001100010
0000000110001001
0000000110111110
0000010101011011
1111110110111011
0000001001101010
0000010000101010
0000000000111100
0000000001110000
0000010001011101
1111111111011111
0000011100000111
0000000111010000
0000000000011000
1111110001110111
1111111111000110
0000000101010100
0000001011001001
0000001010010110
0000001110000001
1111111001101100
0000001110110100
1111110010011101
1111110010011100
0000000001001101
1111101110001101
0000000001010111
0000010001010010
1111110010001011
0000000001001101
0000000010101111
1111110110111001
1111100101100100
1111110000001111
1111111001000111
1111111011111011
0000000000010101
1111111000000101
0000011001111111
0000010101011001
0000010111110000
0000001100111011
0000001110101111
0000010110000111
0000010010001001
1111111011101011
1111111111000100
0000001001110100
1111111110101110
0000000000001111
0000000000010011
0000000010110011
1111110110111100
0000001011001111
1111111010110001
1111110011110000
1111100111010110
1111111010100001
1111100000010000
1111010011101000
1111100000011001
1111011011010101
1111011011100000
1111101000010101
1111110110111101
1111111010110101
0000001101110000
0000001110010110
0000011101001001
0000000010100010
0000001011110011
0000011100100101
1111110010101101
0000000000010011
1111110110010000
1111110010010010
1111111111111010
0000001011101110
1111110011011010
0000001111010001
0000001011000100
1111111001101011
1111101101010110
1111101001001111
1111110100110101
1111111000010001
1111111000111001
1111101010111110
1111111100001011
1111110110010000
0000001000000001
1111111111101101
0000010100000111
0000011111011100
0000001010111010
0000101000001010
0000010011111011
0000001110011011
0000011110010111
0000011001000111
0000001000011111
0000010000011000
1111110001010110
0000001110100100
0000010010000110
0000001001000100
0000000110101100
0000001011111110
0000000100111100
1111100110100001
1111100000001010
0000001000011011
0000001000001110
1111111001011110
1111110000000010
0000000010000111
1111100101100110
1111001110010100
1111001001011001
1111100011111000
1111011110111011
1111100110100111
1111100111011101
1111110100110110
1111111110001101
0000011000110100
0000100111110010
0000100001011111
0000000100000010
1111110101100101
0000000011000101
1111110100110011
1111111101000100
1111111101100000
1111101111001111
1111111011111110
1111100000100100
1111100100111010
1111101011100010
0000011100111100
0000100110101011
0000010101110101
0000001100000111
0000000110110111
1111010110010101
1111000011000010
1110110100100111
1110110001000010
1110111111010110
1111001010000011
1111011011000111
1111100001010100
1111111110011100
0000001101101110
0000001101110101
0000010000100010
0000011100011011
1111101111001010
1111111011111011
1111111111110000
1111111100111011
0000000100001111
0000010001001011
1111111111111010
1111101101000110
0000001000011111
0000000010010111
0000101111010101
0000010101011100
0000101010010111
0000010101001001
0000001010110101
1111101110100100
1111101110100100
1110101111001111
1110100101011010
1110111111111011
1111001000110101
1111101111010111
1111111100001011
1111110000101111
0000010011110111
0000010100010100
0000010101101101
1111110000000000
1111110100110110
1111101101001110
1111110111011001
1111111011101001
1111110010110100
1111110001101110
0000001010100100
1111111001011101
0000010001001001
0000011000011100
0000011000011011
0000101010011101
0000110111110110
0000100111100001
0001000101001110
0000100011001010
1111111001101000
1111001010000111
1110111100001011
1111011001110100
1111011111010011
1111101010111011
1111110100010111
0000000011001010
0000000001010011
1111111110011011
1111011011011111
1111100101101101
1111100000010100
1111110101110011
1111110011011000
0000000000100011
1111110010111101
0000000100110101
0000001100101110
1111111010011100
0000001100000000
0000001101000010
0000100101101011
0001001011110100
0001001110110010
0001001110010011
0001000000101010
0000101100001000
1111101110010010
1110110010000001
1111010110100001
1111111100010010
0000000010110111
1111100110011111
1111101011011010
1111101101000101
1111101011001101
1111110000010011
1111101000100010
1111100010000111
1111100001001110
0000001001101111
0000001101101101
1111111100110100
1111111000111001
1111110100111010
0000010001011010
0000001000100011
0000100101011100
0000101000001110
0000100110101110
0001000110010100
0001011110100111
0001011001000111
0000111101001101
0000110100100000
1111101000010001
1110111111110001
1111110010101101
0000101000011110
0000010011111001
1111110110001011
1111101001001111
1111011010110010
1111110011000101
1111111001110011
1111100001010010
1111110010111001
1111111111111000
1111110110010100
1111111111111010
0000000000010011
1111101110000111
1111101111100111
0000010011001011
0000000101111101
0000000110100110
0000011000111100
0000101011010100
0000110101010011
0001000011100100
0000101100010111
0000011111100011
0000001100001011
1111100100101011
1111110011110011
0000111010111000
0001001101001100
0000100010011100
1111110001100010
0000001100000101
0000011000011101
0000011001110100
0000000101110000
1111110100110010
1111111011000010
1111110010111111
1111111101100001
0000000010100110
1111110011000001
1111111011110010
0000000111000011
0000001000100010
1111110010101000
1111111011001100
0000001011111101
0000100001011000
0000011011000010
0000101011010000
0000011100001111
0000100100110101
0000011100010101
1111111111110000
0000110111010001
0001100010101011
0001001000010110
0000100010100111
0000000110011100
0000100000110101
0000100110100000
0000011011001101
0000010101101010
0000010001011100
1111111010001000
0000001111001001
1111111010111011
0000001111111001
1111101111111001
0000010000001100
0000001010000001
1111110110011010
0000010000100101
0000000111000010
0000010101011101
0000101000001100
0000101101010110
0000001101100001
0000011001001101
0000110010110101
0000110011110100
0001000100001001
0001010000110100
0001101110010100
0001011010110110
0000111001010001
0000100101101000
0000100111011110
0000000110000001
0000000100011001
0000011010000101
0000001100111000
0000001101101100
0000001001010100
1111110100010011
0000000101110110
0000001100100111
1111111100101010
1111110001010010
1111111111001001
1111111101110111
0000000100110110
0000010100000001
0000011110100111
0000100110000000
0000001001101100
0000010000111001
0001000000101010
0001000111000101
0001111000110110
0010011010011101
0010000010000100
0001101010101011
0001001110110011
0000101001010000
0000010010011001
1111110001101111
1111101011010111
1111111111010000
0000001001011101
1111111101011000
0000010010111011
0000001000010101
0000001100001000
1111110101000101
0000000001100011
0000001010010111
0000000001001101
0000000001011100
1111101111011000
0000010111010001
0000100110010111
0000111100001101
0000100110100001
0000110100010111
0001011001010100
0001110100000111
0010011001100110
0010110100010001
0010110101101110
0001111100111001
0000111011000011
0000010101110100
0000000010001000
1111100101000100
1111100011011001
1111010100101110
1111111110111101
0000000001110100
0000001010100010
0000001010100010
1111110111100000
1111111100001010
1111111110100111
0000000000100101
1111110111111010
1111011100101001
1111110101001011
0000000011000100
0000011100011111
0000101111110100
0000101001111111
0001001011100101
0001111001000110
0010001000101111
0010111111100010
0010110111110010
0001110100101111
0001011010000010
0000001101011001
1111110100010101
1111011100110101
1111100011010101
1111100011100011
1111100100101100
1111110000001000
0000010100010011
1111111010100110
0000000011011100
1111110100101101
0000001010110100
1111111000011001
1111110011111101
1111111001001010
1111011010110100
1111100000100101
1111011100001001
1111111100100010
0000011110100001
0000101101010111
0000111000110111
0001011000101110
0010011001100110
0010001101001010
0001101011000111
0000111100111000
0000000000100010
0000000001110011
1111111100011100
1111100011001001
1111011100001001
1111100000011101
1111100110101110
0000010110010011
0000011010111010
1111110110100111
0000000000011100
1111110011011100
0000000100100101
0000010000011100
1111110010110110
1111110001111011
1111010000011011
1111011111111111
1111011100011010
1111111101100010
1111011110100010
1111110110001101
1111111101110001
0000101000000100
0001000101000000
0001000000111010
0001001100101101
0000101100000010
0000001000100000
1111100101000000
1111101100000001
1111110000001000
1111101010110111
1111011111101101
1111110011010000
0000011000111001
0000100001000010
1111111001101101
1111111011111000
0000000111100011
0000000011010111
1111110011011100
1111101111001001
1111100000001011
1111100001110111
1111011111110100
1111001101100000
1111110010100111
1111100011001011
1111101100010111
1111110100000110
0000001001110011
0000100010011010
0000010111000001
0000010101100100
0000010100011110
0000000011010101
0000000001001101
0000000011110110
1111110110110100
1111111101010100
0000001110000100
0000011111100010
0000001010110110
0000000111110010
0000000111000010
1111111110011101
0000001101110011
1111111000101111
0000000111001001
0000001010001001
1111111011100111
1111100111010001
1111011101100100
1111010101000011
1111110111011000
0000000011000001
0000000101011100
1111101010011010
1111111101011111
0000100110010101
0000100011110110
0000011001100010
0000001010000101
0000000110001010
0000001101101111
0000011110111101
0000011110010111
0000011001110101
0000100110011111
0000100011010011
0000101010110100
0000000110011110
1111110001010011
1111101110101010
0000001011000010
0000010010001101
1111110010100100
0000000111010010
1111101001001111
1111100001000000
1111110011111100
1111101010011101
1111100101100110
0000000011110011
1111110101000010
1111111011100101
0000000010111001
1111111111000111
0000000100110001
0000001110000000
0000011011111010
0000011010000000
0000011011011010
0000100101100110
0000110100011101
0000101011000000
0000011010000111
0000100100110111
0000000100001001
1111110100011001
1111110010010110
1111110101111110
0000001110010011
0000001100000011
1111110111101110
1111101101001111
1111101000000011
1111110010101000
1111101101000100
1111010101011010
1111010100011011
0000000001101011
1111110101101101
0000001000010000
1111110000000110
0000001000101010
0000001000101100
0000101001001111
0000100010010011
0001000000000101
0000101011100110
0000101001110000
0000100010011111
0000110110101110
0000010100010011
0000001111111100
0000010000100011
1111101111011011
0000000110010110
0000000110000100
0000000011100011
1111111011101011
0000001001010000
0000001110000100
1111111101011110
1111101010110011
1111011111011010
1111110000101001
1111001100010100
1111100010111100
1111011110010100
1111101101111110
0000000010111110
0000000011101111
0000000111000111
0000000011010100
0000101110101111
0000100001000001
0000000101010010
0000100011011110
0000010100010010
1111111000101111
0000000101010100
0000001000101110
0000000110101101
0000001100101011
0000001001111010
1111110101101100
1111101111000111
0000000100111001
0000000110100010
0000000011000011
0000001111101111
0000010000010111
1111101111000000
1111110101001000
1111110000000101
1111101010111010
1111100000011101
1111011011100100
1111010101001001
1111000111101010
1111100100000010
1111101100011001
1111111011000000
1111011001000011
1111100000101001
1111001101111111
1111110001100001
1111100000000011
1111100010011001
1111100111001100
1111111000000101
0000001110101111
1111111001011111
1111111110001110
0000001101101010
0000001110000100
1111110100001100
1111110000111100
0000001111001100
1111111110010001
1111110100001001
0000001111101011
1111101111010100
1111111100111000
1111111111000001
1111101111100110
1111111010111010
1111100111001010
1111110000111110
1111110000001001
1111100110110100
1111111101100110
1111110011111001
1111101110100011
1111101010110110
1111110000010011
0000000111110100
1111110110011001
1111110001011001
1111110011001110
0000001110010010
1111111111111111
1111110100011111
1111110100111000
0000001000101101
1111110010011111
1111111000010101
1111111001100000
0000001100001001
1111110011101100
0000010000010011
0000000011111100
1111111000111001
1111111100100000
0000000110000101
0000000100110111
0000000110110110
0000010000010100
1111111001110010
0000010010110000
1111111110110011
1111101110110001
1111110110001100
0000001010011011
0000000110100111
1111101111111001
1111101111111101
1111101110101001
1111101110000100
1111110011101001
0000001010011000
