0000001111001111
-000000011101101
-000000000111101
0000000010010010
-000001011010110
0000000001000000
-000001111100110
-000001111110000
0000001010100110
0000000100110110
0000000100000011
0000000111011010
-000010001111000
-000000010110010
-000000000001101
-000001111111000
0000000101001100
-000001011001010
0000000010101000
-000001101101010
0000000101010101
-000000110100101
-000001110000100
-000001111011110
-000001111110001
-000001010111000
0000000000100100
0000001110101100
-000010000011100
-000000100000101
0000000001111110
-000010000111101
-000000111000111
-000000000010000
0000000101111000
0000001001111011
-000000110010011
-000000110110001
-000001000110111
-000000110110111
0000001100111001
-000000001010100
-000001110111100
0000001110000100
0000000011000111
0000001111101110
0000000000010111
-000000101011110
-000010001001110
-000001100111001
-000001000010100
0000010010000011
-000001011110101
0000001001100011
-000001010110010
-000010001001010
-000010001110111
0000000110000110
-000000011101000
-000000100100010
0000000011100110
0000000001010011
0000001011011111
-000001101010011
0000010000000010
-000000011110101
0000000001010010
0000000100101101
-000000000010111
-000001101100000
0000001000001010
0000001101111100
-000001001110100
-000000101011100
0000000101000100
-000001100011110
0000001101000111
-000001001010000
-000001011010000
0000001000000111
0000000110010011
0000010001011011
0000001000010001
0000000111110000
-000001100101000
-000010000000001
0000001110101100
0000001011100011
0000001001111011
-000000101001011
-000001001100000
0000001010100000
-000000000100101
-000001110100011
-000010000000011
-000001011010101
-000001111110110
-000001000111111
0000000111110010
-000010111111111
-000000001110111
-000001001110010
-000001111011110
-000010101100000
0000000101001011
-000001010011000
-000000000010100
0000001000001100
-000001111111100
0000010010001111
0000000100010000
-000001010001011
0000000000000010
0000000110111000
-000010001010011
-000000010001010
0000001101110000
0000000001110001
0000001011100011
-000001111010010
-000000001101110
0000000001111001
0000000101001001
-000001010011110
-000000110000000
-000010101010110
-000010100000101
-000000001011101
-000010001101110
-000010010011000
-000100000111110
-000010101000001
-000011011010111
-000010001000111
-000010010110010
-000010100110110
0000001100000110
-000001010010000
-000000000111101
-000000001010001
-000000101111101
0000001001000100
-000000101000001
-000001011011100
0000001111110000
-000000101011001
0000000101011011
-000001011011111
-000000011011010
-000000000111110
-000010001001100
0000000111001001
-000000010001101
-000000100101100
-000011000000110
-000010001100011
-000101000001101
-000101111110101
-001000001010001
-000111000001010
-000110000110011
-000011110100100
0000000010010100
0000010001000010
-000001110101000
0000010100111111
0000001101011111
-000001101110001
-000000111110000
0000000001010100
-000010001001001
-000001110110010
-000010000100010
0000000100101110
0000001001110101
0000010101001000
0000010011010011
0000011111000001
0000100001111111
-000000000100010
-000001100110101
-000011010100011
-000001011101001
-000100111000010
-000110010101011
-000110110100000
-000110100111010
-000100101011001
-000000010101110
-000010000111100
0000001110010010
-000000000101001
0000011110100010
0000001111001011
-000000101010001
0000001101011011
0000000011001000
-000000010011101
0000010001011101
0000001010000011
-000010000111000
-000000010010011
0000011111101111
0000011100100000
0000010110110000
0000110000001010
0000011001001111
0000101000110100
0000001101111000
-000010001100001
-000011001110111
-000110011100011
-000110100101111
-000000110011000
-000000001010011
0000000010000011
0000011010111110
0000010100011100
0000110101011010
0000011010101001
0000111001101001
0000100000101011
0000001010101011
0000010010101011
-000001111101011
-000000011110101
-000001000110101
-000001001110111
0000010110111101
0000010110001010
0000100100100000
0000100011101110
0000101010101101
0000010111010011
0000011111100110
0000001100100100
0000100101101001
0000001010110110
0000100011010010
0000011010001000
0000100001110010
0000111100101101
0000101100011000
0000101001111110
0000110111010010
0001000001110101
0000110110010101
0001000011111011
0000101110001011
0000010110100010
0000010100111001
-000000001100010
-000001100111110
0000000101011001
-000000111101100
0000001011100100
0000001010000101
0000001110011101
0000100011110001
0000000101000111
0000011010001110
0000001101111011
0000001011000010
0000100011001000
0000111101000101
0001001010110000
0001001111100001
0001100010011010
0001011011101111
0001101100001100
0001010101110111
0000111101011010
0000101010011010
0000111011001111
0000100111000010
0000101111100110
0000110100011011
0000101000100001
0000010100011100
0000000111101011
-000000000101001
0000000101100111
-000001010110001
0000001000001001
-000000010000100
0000001011101010
-000000000111111
-000000000011100
0000010000010010
-000000001111000
0000000100110011
0000000111001100
0000100001000010
0001001001100000
0001101001000000
0001101110111001
0001100011010100
0001000101001010
0001000100010111
0000101011111010
0000000101101110
0000011100010000
0000010101001000
0000100001011111
0000101011011001
0000100010000011
0000000111110100
0000000111100100
-000000101101110
-000010001011101
0000001110000110
-000000001001011
0000010110010110
-000000100001010
-000000010001010
-000000100110011
-000010000000110
-000000100010001
-000010001100001
-000010100101101
0000000001110000
0000001110000001
0000011001110001
0000010000011101
0000100010011001
-000000011111010
-000000000111111
-000010101001100
-000100100111100
-000010000100011
-000010010111011
-000010000001110
-000000000111100
0000010110000010
-000001110001000
0000001100001101
-000000001110011
0000000001111001
0000010010010110
0000001100111011
-000000001110100
-000010001010111
-000011110100000
-000001110010101
-000000111011011
-000010101111010
-000101001010100
-001000000001111
-001011010111100
-000110100110000
-000111110111000
-000101000110010
-000110001011000
-000011101110100
-001000000001101
-000111001110001
-000101111100110
-000110010111101
-000101110111010
-000110100100011
-000000100111001
-000000110001010
0000000001011010
-000001000000100
-000001011110111
0000000111110001
0000000011000010
0000001011001011
-000000111100000
-000100100011100
-000100111011100
-000101010010000
-000010100010100
-000000010101101
-000111001101110
-001011010101011
-001100000001010
-001001101011101
-000111000010011
-000110110001110
-000100110011111
-000011010101111
-000101000110110
-000110100011010
-000110110101100
-000011100110011
-000101101111011
-000011011000010
-000000110101010
0000001000111010
0000000111011011
0000000100100111
-000000111000111
0000001001110100
0000000101000100
-000001111010111
-000010100010010
-000010011000110
-000110010011001
-000101011010010
-000001010101010
-000001011011101
-000011001100011
-000111001001011
-001011000101110
-000110100100000
-000011011000111
-000001001010110
-000000111011101
-000010001110110
-000000101110011
-000001101001101
-000100001001110
-000100000010000
-000101000111010
-000101010101011
-000010110110110
-000001101100000
0000001100000000
-000001011110001
0000000110101001
-000000110011011
0000010000111001
-000001110110000
-000010111101001
-000011100001100
-000101001111011
-000010111010110
-000100100001011
-000011111000101
-000010100011010
-000101000011000
-000001101000100
-000001101011010
0000000010101010
0000000011100000
-000000110100010
0000000010100010
0000011011111110
-000100000101000
-000011111100111
-000010000000001
-000001011000101
-000010101110001
-000000100000100
-000001011110100
-000001000101100
-000000011001101
-000000010010010
-000000101000100
-000000011000100
0000001101010111
-000001110111001
-000010101001010
-000010001101101
-000101010010110
-000010010010000
-000000111011111
-000010001001010
-000011111011100
0000000001110000
0000001110100111
0000010001111011
0000010100101101
0000011010000101
0000001111010101
-000000111101110
-000000101110000
-000010010001000
0000000101101000
-000011001010101
-000000110100101
0000010010011100
0000010011111001
-000000101000101
-000001110111011
0000001000011101
0000001111101111
0000001011011111
0000001011111110
-000010111000111
0000001010110100
-000001011101001
-000000011011110
-000001111011110
-000001001110101
-000100001010000
-000000100111110
0000000011110000
0000011100101011
0000110010111000
0000100010111110
0000100101111011
0000000110001101
0000001101001001
-000001001101101
-000100001010011
-000010110101100
-000011010110110
-000001100000101
0000010100100001
-000000110100100
-000001111001001
-000000010000110
-000001001000111
0000000011101101
-000000000101001
-000001011011000
0000000101011000
-000001000011000
0000100000000000
0000010100101101
-000000010110010
-000001110011110
0000000111101111
0000001110011101
0000110110101000
0000110100010010
0000111101101110
0000100111111111
0000000100001001
-000000011111001
-000100001001100
-000100000110110
-000011001110011
-000100101110110
0000000101011110
0000001111010110
0000001101010010
-000000010110001
-000001101001111
0000000011011001
0000001101100110
0000000011111110
-000010011100010
0000000101110001
-000000101110101
-000010001100110
0000011110001100
0000011010000101
0000010101111111
0000000011111001
0000001100010000
0000101100110111
0000111101101010
0001010000100010
0000111100100011
0000010100101110
0000001110101011
-000001000100001
-000100001001010
-000100000011111
-000010100101000
-000001110101010
-000000001111001
-000000001000011
-000000010011010
-000001011100011
0000000001110101
0000010000111011
-000001101000000
0000001111001010
0000001111011100
0000001000111000
0000000101101000
-000001000101101
0000000001100000
0000001101101011
0000100110110000
0000001111111010
0000100110101100
0000100011001111
0000111001101100
0000100111010100
0000010111011110
-000001101110110
-000011001111011
0000000010110111
-000011111001011
-000010010011001
-000001111000011
-000000000010110
0000000010100101
0000011010011000
0000000011110100
0000010100111100
0000000001010111
-000010000110001
-000000001011110
-000001010111011
-000001110110001
-000000111001010
0000000001000101
-000000110001110
0000001110001101
-000000101011011
0000000000110110
0000100010110010
-000000000000001
0000000010001001
0000010101001100
0000000101010010
-000001000110010
-000001101111110
-000000111001010
-000010001010101
-000001000001011
-000100000010101
-000011100101101
-000001110000001
-000001111010011
0000010100111110
0000010110100110
0000000011101111
-000001100000011
0000001010000111
-000000000101001
-000010000000001
-000001000100011
0000000111001100
0000000100100100
-000000110011000
-000001101010000
0000010001011111
-000000010011100
0000000001001010
0000010100001110
0000001001111011
0000001101010011
-000000011110001
0000000110101101
0000000110000000
-000000000111011
0000000001101110
-000011010001010
-000000001001001
-000000001100000
-000010010000011
-000000100001111
0000010100110000
0000010001110001
0000001010010001
-000000101101111
0000001101111111
0000001011000011
0000000110111101
0000000010110001
-000001110001011
-000000101000110
-000001110111100
0000000101101011
-000000011101100
0000001111011110
0000001110011110
-000001010001001
0000001010100110
0000001000000001
-000000010101010
0000010001101001
0000001001011010
0000001101111001
-000000001111101
0000000000000010
-000010011101001
-000010100100001
0000001000111001
0000000100011010
0000001010110101
0000000011101010
-000001010111100
0000000101010101
0000001111011100
-000000011001100
-000001010100011
-000001110110000
-000001010100110
0000000101011011
0000010000101101
-000000100111010
-000000001111111
0000000110101111
-000010000011110
0000000100000110
0000001010000010
0000001001010001
-000000001010101
0000011011100010
0000010111111101
0000011010111110
0000000001101111
0000001101110101
0000000100010100
-000000110001110
-000000000011100
-000010110000100
0000001110101111
0000010010101111
0000001000100110
-000000111000111
-000000001011000
0000001100100111
-000001011001001
0000001001111101
-000000111011001
0000010000101011
-000001000010111
-000001010101000
-000001111010111
-000001001100101
-000001010001000
0000001010110010
0000000010010010
0000011011110101
0000001011110010
0000001101101010
0000001101000111
0000000101011100
0000000011010111
0000001101110001
0000001011110111
0000000010101000
-000000000100011
0000000101011010
-000001100101011
-000001011001110
-000001101011001
-000000101001111
0000010001011111
-000001000011001
0000000100001110
0000001110001101
0000000100010100
-000000010010111
-000000110001100
-000000001010101
-000001001110001
-000000111010101
-000001000001011
0000001010111111
0000000001111101
0000010111010111
0000001110111110
0000000011001011
0000001001110011
0000010000001000
0000011011100101
0000010101111011
0000001100000000
0000001100110001
0000000000000001
0000010010000000
-000001101000011
-000000111110100
-000010000101001
0000000011101011
-000001101110100
0000000001111101
0000000100000101
-000010010000001
-000000011010100
0000001101101000
-000000001110010
0000000000011010
-000000101001011
-000001111101111
-000000110100010
0000001111101100
-000001001011101
-000000001000010
0000001001010110
-000000110001110
0000000101101001
0000001001000101
0000001100110101
0000010010101101
-000010000111101
-000001010110010
-000000110001110
0000000011000011
-000000001010010
0000001011101101
0000001001001100
-000001000010010
-000000011001010
