0000001101100011
-000000101111110
0000001011000110
-000001011000010
0000001110101001
-000000001010101
-000000110101110
-000001010010110
-000001010111000
0000010001111110
-000001001011101
0000000010001101
0000010010001000
-000001000001010
0000001000101001
-000001101001001
-000010001010001
0000001010000101
0000010001000001
0000000101011000
-000001101110101
0000001110111000
0000010010000011
-000000000000111
0000000011101010
-000001110111110
-000010001011111
0000001111111111
-000010000011100
0000001111111110
0000001111100110
-000001100100111
0000000011101000
-000010000000101
-000000110110010
-000001011010110
-000000000111011
0000001101011001
-000001111101111
0000000001111011
-000000101000011
-000000001101010
-000001110011101
0000001011011010
0000000001011101
-000000010000010
-000001100111011
-000000110111100
0000000101101101
0000001100100110
-000001011001011
0000010000011001
0000001010011111
0000001111011000
-000001100010111
0000001001110100
0000001101100101
-000001101111010
-000000011000011
0000001111000001
0000000010100011
-000000101100010
0000000011000001
-000001110011100
0000001010011111
0000000100110100
-000001101000111
0000000101111111
-000001100101011
-000000111111100
0000000011000001
-000001000001110
0000001001110110
-000010111000000
0000000001110101
0000000000101001
0000010001100011
-000000011011001
-000001000000001
0000001101110001
0000000101110111
-000000010001011
0000001000101100
-000000100000011
-000010001111110
-000000100101011
0000000011110100
-000001101111111
-000000101000111
-000001100101010
-000000100010000
-000010000111101
0000001001011111
-000011101011011
-000011001010110
-000101000000000
-000010111101011
-000010010110111
-000011100100000
-000010011000000
-000000010100110
-000001010011010
-000000110011010
0000000111111000
0000001101000111
0000001011011100
-000001001110011
-000001010111110
-000010000111011
-000001011100110
0000000100110100
-000001111000000
-000000100001000
0000000110101011
0000001011111000
-000010010001100
-000010001011001
0000001000011101
-000000001011101
-000001100000101
-000000000111100
-000101001011000
-000101001111011
-000001111001111
-000100010101111
0000000010001110
-000000100010101
-000000101110110
0000000111001111
0000000110110110
0000010100110100
0000011110111000
0000010101000101
0000010111011010
0000010000010000
0000011100100100
0000000111010011
-000001101001010
-000000001010101
-000000101001101
-000000010011100
0000000110100111
0000001011010110
0000000101110101
0000010000000101
-000000101100011
-000001001011110
-000001101001011
-000001001001100
-000011111101110
-000100011011111
-000001010110110
0000000000001001
-000001001100000
0000001001101000
-000001111101001
-000001011110111
-000010011111111
-000010011110110
0000001011110110
0000001110011011
0000011101110010
0000011001111000
0000100000100101
0000010100111111
0000010100111010
0000001101101011
0000000111100010
-000000010000101
0000001100101010
0000001101111010
-000001111011010
0000000001011011
-000001101010100
-000000011000101
-000100000100111
-000010011010000
0000000010100111
0000000100111111
0000001100100010
-000000100110010
0000010100001010
0000001100110001
-000001000000110
-000000010110101
-000001010110101
0000001100010010
0000000111000111
0000010010000100
0000001110110101
0000010111011101
0000011011110000
0000001111011100
0000010110001011
-000001100101101
-000000111011001
0000000001101010
-000010000011010
-000010001111110
0000000101110000
0000000101101100
0000000111010001
-000001110110111
-000001010000000
-000000110100010
-000000000000001
0000001001000111
0000010011101101
0000010001111111
-000001000011011
-000001111011001
0000010010000110
-000000110010001
0000001011011011
0000001000010000
0000011000111001
0000100110110000
0000010010000101
0000001000000110
0000101101110111
0000001111000110
0000011101100110
-000000011001000
0000000110100101
0000001110101100
-000000110010110
0000001111001001
-000001110110010
-000000101010011
-000001011011001
-000000010101000
0000001111011100
0000010011010101
0000000101111000
0000000111111010
-000001100111100
-000001011001100
0000000111100001
-000010010100001
-000010010000100
-000000001010010
-000000001011100
0000001010001110
0000001100001100
0000011111100111
-000000000101000
0000001000100010
0000011101110001
0000011001100000
0000001011010100
0000001110101100
0000000010111001
0000001000011111
0000000000010011
-000001010011001
-000001111011010
0000000001101000
-000000100000110
0000010001011010
0000010001110101
0000011111011100
0000001011111011
-000000001011011
0000001011110010
-000000100111001
-000010110111000
-000010011001100
0000000101101111
0000000001011011
-000000001110000
-000000011011011
0000000110110011
0000000000000011
-000000101110101
-000000111110010
0000000110100100
0000001111000001
0000010001110110
0000001001010110
-000001101010110
-000000000001011
-000000010011110
-000010000010001
0000000001001111
0000001100111100
0000011100000100
0000001110001001
0000100110000000
0000100010001000
0000110001000111
0000010110101001
0000100000101100
0000100001100111
0000011001001010
0000101101111111
0001000001101111
0000100001101000
0000000011100000
0000000010111101
-000011010001110
-000001110010000
-000010000000101
-000001100100111
-000011011111001
-000000100100100
0000001111100110
-000000000110011
-000001101011111
-000010000110111
0000000001111001
-000001110111010
-000001010100101
0000000110100000
0000011011010001
0000011100001000
0001000001110101
0000101010110001
0001010001010000
0000110111000110
0000110110110010
0001000010110100
0001010101111011
0010000110000101
0010010110010100
0001001110111000
0000111101111010
0000000010101110
-000001110011001
-000011011010010
-000001001010100
-000001111111110
-000011001100111
-000001110010000
-000001100110011
0000001010110000
-000000001001010
-000010000010010
0000001111111000
0000000101010011
0000000011110100
0000101000010000
0000100000000100
0000110001100010
0001001111000011
0001001110111100
0001001001100101
0001001010110101
0000100000110100
0000111001011101
0001011101011100
0010001010000111
0010010001110100
0001010000011100
0000110001110010
0000100111111011
0000000011000010
-000000010101100
-000000110000110
-000101100000100
-000100011010011
-000100111110100
0000001000110111
0000001110111100
-000001111110111
-000001101000100
0000000011010101
-000001100001000
0000000110101010
0000001000100110
0000101000110010
0000111000010101
0000111100001101
0000101110100100
0000011111111111
0000100101111101
-000000000110000
-000000110110111
0001001001010001
0010001111111110
0010000010011100
0001010000110101
0001000111000111
0000011101010111
0000010010001001
0000011111001000
-000000010101101
-000011101001101
-000101100011001
-000100101010101
0000000101100110
0000001011011001
-000001001111100
0000001111110001
0000001100001000
0000000011000111
-000001011011110
0000010111000111
0000001110011000
0000100101110110
0000001010010111
0000001010101110
-000000100000011
-000011010001111
-000011000010100
0000000110001111
0001000000101110
0001111111000000
0001100000011110
0001001000000101
0000110010110110
0001000001010111
0000110010101011
0000100100100111
0000000111000001
-000011101111000
-000010100000000
-000010011000111
0000000000110110
0000001100101110
0000000100000011
0000001001001000
0000000101000001
-000001111110011
-000000100001000
0000000001110110
-000000011111000
-000000110000000
-000011011011001
-000001010010001
-000100011011101
-000100010010010
-000000110001010
0000000111110011
0001000000100111
0001100010001111
0001010101011100
0000110011110101
0000111010100110
0000100110000011
0000011001001011
0000100011100111
-000000110111110
-000010111000101
-000100011011001
-000010001101000
-000011001001101
0000001011100000
0000010000111111
-000001000100111
-000000011110000
0000001100101111
-000000011111100
-000011100111001
-000101100100010
-000110010101110
-000001100000011
-000010111110011
-000100100101101
-000111010000100
-000010110110001
0000001011100000
0001011010100111
0001011111000111
0001011010011011
0000100110100010
0000000100000111
0000000110010011
0000001001000000
-000000001110010
-000000011101111
-000000111110010
-000110010010111
-000010101000010
-000001011001100
-000000101100000
-000001000011110
0000001111011010
0000000100111011
0000001101000111
-000000010010111
-000001000010100
-000100000111010
-000101111000010
-000011110100110
-000101110100000
-000101110101010
-000111000011101
-000100000011111
-000001001010100
0001000011000110
0001101111100110
0000110111100101
0000010011110101
-000011001011001
0000000000111111
-000001100000110
0000000101000000
-000010100110010
-000011011001100
-000101101001001
-000101111010101
-000010011111100
-000010110000010
0000000000000111
-000000101001011
-000001000000010
-000001111000011
0000000011100010
-000000111011101
-000110100011010
-000011111010011
-000101110001101
-000101001011010
-000110111101101
-000110110111101
-001000010000011
-000010001000101
0000011101000011
0000110111001010
0000101111101100
-000000010100110
-000010100001011
0000000011100100
0000000000001111
0000001010110011
-000001001010011
-000011011011011
-000111100111101
-000110100111110
-000001100000010
-000010001100001
0000000001000011
-000000111101010
-000000111100011
0000000010110110
0000000110001111
-000001010110111
-000101001110000
-000010110001101
-000111000111010
-000110000110010
-000111100100010
-001001101111011
-000111010010010
-000010011101101
0000000100110000
0000100111011000
0000011011000111
0000000010001101
-000010100100111
-000001100011100
0000001001000111
-000001010111011
-000011111110010
-000100000001011
-000010101100001
-000110000010000
-000010110101000
-000001011100001
-000000011100011
-000001010110011
0000000110010101
0000000011011100
-000000010100101
-000010011110001
-000011110101110
-000101001100100
-000011010100100
-000001000001000
-000011011000110
-000010110101011
-000010101111111
-000001000110010
0000001110010010
0000001010100101
0000010001110011
0000010000111110
0000001011101000
-000001111010000
-000010011100001
-000001000110110
-000010011011000
-000100110110010
-000101001010001
-000001101100111
-000010101111111
0000000010111000
-000001110011101
-000001110101111
0000000101100010
0000001000110011
0000001101000111
-000010100010000
-000011010001001
-000011101011111
-000000110110001
0000000011010000
0000000001110111
-000011000110010
-000011000100111
0000000000001100
0000010010001010
0000000111110001
0000100110101100
0000010001000001
-000000100011001
-000001111010001
-000000100001100
-000010001101010
-000010011100110
-000010010111000
-000100011001000
-000000111001101
-000001011000011
-000000011000100
0000000001000100
-000001110110110
0000001110111110
0000000000111000
-000000101101000
-000010001001011
-000000111101011
-000000111000011
0000000101111110
-000001000011000
-000001101101001
-000000100111101
-000000111100111
-000001100100001
-000000111011000
0000010111101000
0000110101000010
0000100001010000
0000011100111100
0000000110000100
-000001000100110
0000000001011000
-000000011111001
-000011000011000
-000011110011011
-000001011111011
0000001101111000
0000001110010011
0000000011111111
0000000011010011
-000000011001011
0000001101001110
0000010001100000
-000001100011111
-000000000011100
0000000110000011
0000010010101110
0000001001010010
0000001110100001
0000000110100110
-000010010010001
0000010000110110
0000001101111000
0000101001110001
0000011000001000
0000011100101100
0000010110111001
0000100000010000
-000001001000001
0000001111011010
-000000111111100
0000000110001110
-000000010000111
-000001011010101
-000001001011100
-000001100101011
0000000100010110
-000000000010000
0000001001111101
0000010001111111
-000000110010101
-000001010101111
0000000000011011
0000000001011111
0000011001110101
0000001111011110
0000001000001100
0000000110011100
0000001111110001
-000000100011100
-000000101011000
0000010010101111
0000001011110001
0000011110000001
0000100010010111
0000001010010110
0000001110101011
0000000101111101
0000011001011110
0000001100100111
-000000100101001
0000000111011101
-000001000101100
0000001010111001
-000001110000001
-000000100011001
0000001111101100
0000001001001110
-000000001001000
0000000011001100
-000000010111110
-000000010000101
0000010110011110
-000000000101000
0000011001000101
0000011100010110
0000011010010001
0000010000101001
0000001110000110
0000011101001101
0000000111111110
0000001110110100
0000000001011001
0000010101000001
0000010101000011
0000011010101011
-000001000000101
0000001101010100
-000000010100110
0000010000100010
-000001010011101
0000000111000011
0000010001001000
-000001000100101
0000001101111011
0000000000100011
-000000111011111
-000001110000010
-000001100011100
0000001000011100
-000000110100100
-000000100100100
0000010100011110
0000001111110111
0000001101001110
-000000001010011
0000001101101100
-000001010011110
-000000010111000
-000000000111111
-000001010011100
-000000011100111
0000001011011000
0000000001010011
0000001011111010
0000000100001111
0000001001101100
0000000101101011
0000000000011110
-000001000111101
0000000010101111
0000001000000101
-000010001110010
-000001000001111
0000001110001101
0000001010001100
-000001100101000
0000000101111111
-000000111000100
-000001100001010
0000001010000000
-000001010100001
-000000100001100
0000000000000011
0000000000000010
0000000111101101
0000000010101111
-000000011111000
-000000101001010
0000000100100010
0000000010011111
-000001101010101
0000001111111110
0000000110001000
-000000000100001
0000001011100110
-000000011100110
-000001000111101
-000000010000001
