-000001000110011
0000000101001101
-000001000111011
-000000000010110
0000001110111110
-000000011001101
0000001001110110
-000001111011000
-000000011001011
0000001101011011
0000001101011000
-000000101010000
-000000001000110
-000000101000111
0000000100110001
0000000111100001
-000001101001110
0000000001101001
-000001110010100
-000000001000110
0000000100111011
0000001011100111
-000000110101001
-000000000010100
-000000111110101
0000010001000010
-000010001011011
-000000001110101
0000000000000101
-000001100101000
0000010001001000
-000001011010011
0000010000110010
-000000000001011
-000000111011011
0000001010110110
0000001110000000
-000001000010110
-000001011111101
-000001000001010
0000000011011000
-000000110110011
-000000001000111
0000001100000010
0000001100001011
-000000000010110
0000000000100110
-000001110000100
0000001101101110
0000001010111110
-000000101011011
0000000111001101
-000000011111101
0000000100101011
-000000011110100
0000010001001101
-000010010000110
-000000110011000
-000010000111011
-000000111100011
0000001111001101
0000001110001010
-000000100010010
-000000101010010
0000000111110110
0000001010110101
0000001101111100
-000001000100001
-000001000100000
-000001000001100
0000011000011000
0000000101100001
-000000010001010
-000001001111110
0000001011111011
0000000000101011
-000000101001101
-000010001101001
-000001011110100
0000001110011100
0000000110011100
-000010010000111
0000010001110101
0000001111111101
-000010010001101
-000000100110101
-000010001101101
0000001111100110
-000001111011011
0000000010010110
0000000010000110
-000000000010110
-000001101011010
0000001010001111
-000000010100111
0000100011001111
0000010110001001
0000001100000010
0000000101000000
0000010111010100
0000010011000001
0000011100001111
0000010000100101
-000000100100100
0000000111001010
0000010001110001
0000001100000011
-000001001000000
0000000010001011
-000001100110010
0000010000001110
-000010000111010
-000000100011110
0000000000111011
-000000111000010
0000000000010001
0000000110110011
-000010101010111
0000000000000010
-000001010101101
-000001001000100
0000001110110100
0000011001000010
0000101011011011
0000010111001101
0000010100111001
0000111000011110
0001001000000101
0000110101010010
0000101010111001
0000100001111110
-000000111000111
-000001001111110
-000000100111110
-000001011100101
-000001000101110
0000001101100001
0000010010101000
-000000010000000
-000000001100011
-000010001011111
0000010001001000
0000000100000001
-000000100111111
-000000110010101
-000011010111011
-000011000010101
-000001101001010
-000001010101101
0000010010101101
0000001101111010
0001000000000110
0000111011111001
0001000110111101
0000110111010100
0000110101011010
0001011000110000
0000111110011001
0000101101001011
0000100010101110
0000001010110001
0000010100010001
0000000111001101
0000001101010001
-000001010010010
0000010110100000
0000001001101100
-000001001110100
0000001010100011
0000001101110100
-000001100000010
-000001001000110
-000011101000101
-000000010100011
-000000101011101
-000010100111000
-000001100011100
0000001100101101
0000010111100110
0000101100001011
0000110010110010
0001000110010111
0001010011100110
0001011111101001
0001010010001001
0001010100001100
0001000001010010
0000100001111101
0000100011000011
0000001010111111
0000011001110101
0000001001101000
0000101110111111
0000010001110100
0000001110111001
0000010001011111
-000001101111001
0000001111010000
-000001111000010
-000000100100001
-000010001111101
-000100000100111
-000011011001001
0000001110000101
0000100110010001
0000011010000100
0000100111110001
0000101101011101
0000110100110001
0000100111011010
0000111010001111
0001010000101010
0001001001100001
0000100000000000
0000100011001101
0000011011010111
0000001001111011
0000011110001010
0000001111000000
0000111001110100
0001010001101111
0000100111110011
-000000001100011
-000000111011100
0000001010001010
-000001111011111
0000001110111001
-000011000100011
-000011111001010
-000001001010111
0000000000110100
0000001111101001
0000010000010101
0000111000100001
0001001101011111
0001000000110100
0001010110001110
0000111101110001
0000100100111010
0000011000000011
0000001011100101
0000001011011100
-000000011000010
0000010100110111
0000000100010010
0000001000100111
0000100111001010
0001011011011011
0001010110000111
0000110011100001
0000000101010100
-000000011001101
-000001001000101
-000001000001100
0000001100011100
-000010101010100
-000000101010110
-000001101110001
0000001000011011
0000011011011010
0000111000110000
0001000110100110
0001001001100110
0001100110101011
0000110010111111
0000100000111011
0000010001011110
-000110000100110
-001000100110100
-000110001111011
-000011101011000
-000001110101000
0000001000010111
0000011010101101
0000110110011001
0001101110110010
0001101100100010
0000110111110110
0000000001101100
-000000111101011
-000001010011110
-000000111110001
0000001000110101
-000010011111100
0000000100001111
0000010001001011
0000101000100101
0000101101000110
0000110101110001
0001000001101100
0001000000101101
0000111100011111
0000111001011000
0000010100010000
0000001011110101
-000111110110010
-001011111101011
-001001001101010
-000110111111001
-000010111110100
-000000001011010
0000001101111011
0000010110011001
0001010011111110
0001001101011001
0000101011100011
0000000001001100
0000000001011100
0000010010001110
0000001111010101
0000001111111101
-000000001111101
-000001010101101
0000001110111001
0000011101001001
0000101101010000
0000110000111101
0000001001100011
0000011000000111
0000000010101000
0000001001011011
0000110101111100
0000001110010111
-000101010110010
-001100101110001
-001001010011001
-000111010000110
-000100000011000
-000100001100110
-000010010000000
-000010001000100
0000001110011111
0000011111010000
0000101111010100
0000000110110001
-000001010100010
-000000110100101
-000001001110111
0000010000100001
0000000111111000
0000000010110100
-000001100010110
0000000001111000
-000001001100011
-000001000100011
-000001111111111
-000100101000010
0000000011110000
0000110011011111
0001000010011100
0000100000010101
-000110111111100
-001011101111100
-001000111000010
-000101010011101
-000011000011011
-000011101001001
-000101100100101
-000110010101000
-000101001001001
0000000001001010
0000000011101111
-000001000011110
-000000111110110
0000000101001001
-000000110111010
-000010000110011
0000001001111000
-000001001110110
-000100000100100
-000100111000101
-000100101101101
-000001011001010
-000011010011100
-000010100001110
0000001110101011
0001000010000011
0001101011111110
0000100110001011
-000101111100000
-001010011110111
-001001000001011
-000010111101011
-000000101000001
-000101010101001
-000101010010110
-000110011101110
-000110110111100
0000000001010000
-000001010110001
0000001010011010
-000001101000010
-000001000100000
-000001110010010
-000001001001101
-000000100111100
-000010011010000
-000011111010001
-000101010010010
-000101010111001
-000000110100001
0000000011101001
0000000011010100
0000100001011111
0001010011001011
0001010110101001
0000110101010001
-000000111010110
-000111011111101
-000110110110111
-001000010101110
-000101110001000
-000100110010001
-000110100100010
-001000000001010
-000110111101111
-000000010000101
0000010010001001
0000010100111100
0000001011111000
-000010000010111
0000000011000100
0000001110010111
0000000111001000
-000001011111011
-000100100000001
-000110111110100
-000100111011101
-000100110010010
0000000010110000
0000010010101101
0000011101001000
0001010101001011
0001000100011111
0000011100011100
-000010011111001
-000101000101011
-001000000001001
-000111000001101
-000111100111111
-001010010111011
-000101110001100
-000110011111100
-000100011100001
0000000011010111
0000010000101111
0000001011111010
-000000000010101
-000001101111011
-000001111010001
0000001011111011
0000000110101111
0000000111101110
-000100101010000
-000011110111110
-000101100111010
-000101011011010
0000000011101000
0000010001101111
0000011110010001
0001000001010101
0000100011110010
-000010010101110
-001000100001011
-000101111001100
-000111101011011
-000101001101010
-000100101001101
-000100010100100
-000011111010100
-000010101011000
0000000011111010
0000010010001110
0000011100001010
0000010100011010
0000000110000011
0000000101110011
-000000011001010
-000000100100001
0000000010001000
0000010100000111
0000000010001010
0000011011100011
-000000110011011
-000000111110000
-000000001001011
0000001110110111
0000100000001111
0000011000000010
-000011011110111
-000110111010111
-000100101111010
-000010011001111
-000001001001101
-000000100100100
-000000001000110
-000000010110011
-000000101100011
0000010111011010
0000010111101100
0000110001110001
0000000101010011
0000000110011000
-000010000011011
-000001000000011
0000000010100100
0000001000110100
-000001110110111
0000011101100001
0000100000000101
0001000010101000
0001000110110001
0000011011101001
0000010110011011
0000101000100100
0000111001111000
0000011001100011
-000001010011111
-000101100111101
-000010001101011
0000000011100000
0000011010110100
0000011010000010
0000010100110111
0000010001001111
0000010110111100
0000111000010000
0000111010000111
0000111011100010
0000011000010111
0000001011101011
-000001000111100
-000000001001110
0000001001101001
-000000111010010
0000001101010110
0000001001100101
0001000010110010
0001110010110010
0001110010111101
0001011111100011
0001100110111001
0001100001110010
0000110110110111
0001000011110100
0000001110101001
0000001010011000
0000001110001101
0000101011011111
0000101010100011
0000101110111100
0000110000111110
0000111100101101
0000110111001111
0001001001101110
0000111100111001
0000100100101100
0000000001010001
0000001010101101
-000001000111111
-000000100100111
-000000101010011
0000001101010101
-000000111001100
0000001001111100
0000111011101010
0001101000011000
0001100011111100
0001110010000111
0001100111011101
0001011001111010
0001001101010001
0000111111110011
0000100111100111
0000001110100110
0000001001100111
0000000110010111
0000011101110101
0000100101001001
0000101111001100
0000101111010000
0001010110011000
0001011101100101
0000110010111011
0000010010001111
0000000010100100
0000001100011110
-000001001110000
-000010000011101
0000001001010010
-000000111101000
0000001100010011
-000000011010101
0000001000111001
0000111011000110
0001101100101011
0001011101101001
0001011001110011
0001000001111011
0000100100100100
0000100001101111
0000110111111001
0000010011010101
0000011111100110
0000001000010100
0000011111111001
0000100100110000
0001000100010101
0000110111100010
0001011000010100
0000111110000011
0000110111011101
0000001011110111
0000000100001010
-000010001001010
0000001101111100
-000001001001110
0000001100011111
-000001111100010
0000000101101111
0000001101111101
0000000100010110
0000011010001001
0000101011000001
0000110010110001
0000101011100010
0000011110000111
0000110111001010
0001001110010000
0001010111011101
0000111011101001
0000101001011100
0000110001101001
0000011001011010
0000111001101111
0000110000010001
0001001000011101
0000100111101011
0000010111100010
0000001101100001
-000000001001100
0000000001100100
0000000011111110
0000010010000100
-000000000110101
0000001101100110
0000000111101011
0000001000111101
0000000000000010
-000001110000100
-000100011110011
-000001000000100
-000000100111001
0000001000111101
0000100101111111
0000110110110110
0001100000001001
0000111101101111
0001000110111010
0000100111100101
0000101101000011
0000011000101110
0000010110101100
0000100010100111
0000010011000010
0000000101101101
0000010001100000
0000001111000000
-000001001111010
-000001111101111
-000001000110000
0000000001101111
0000001111010110
-000001001111010
-000000110000001
-000010001110000
-000000110111001
-000011110101111
-000100001001100
-000010100101000
-000011111100000
-000000100000011
0000010001101011
0000010101111100
0001000001010100
0001001010111000
0000111010000111
0000101100011111
0000010111010100
0000011000011010
0000010100000011
0000001111110001
-000001010111001
0000001011101001
0000010000100001
0000010011000100
-000000011001110
0000001011011000
-000010000100010
-000001100100010
0000000010011001
0000000100010100
-000000010010110
0000000000110110
0000001011011001
0000000001101111
-000000101110010
-000001001001011
-000100010001110
-000000001011110
-000001111010101
0000000101100111
0000011010010100
0000010110011111
0000010110010010
0000011000001010
0000010111010101
0000000110001110
0000010101011000
-000001111001111
-000000000100010
-000001100010110
0000000110101010
-000001000010011
0000010000011011
0000010001111110
-000001100101101
-000001111100100
-000001011110101
-000001011010000
0000000101111111
0000001000100101
-000001011010011
-000010100000001
0000001001101110
-000000101101000
-000000111010001
-000000010110000
-000000111100000
0000000001011110
0000001001110111
-000001111110110
0000000011001110
0000000011000111
0000001101001001
-000000001110110
-000000101001000
-000001111011110
-000001010111110
-000001110110110
0000001101011100
0000000000010011
-000000011000010
-000000111010001
0000000101100010
0000001111101010
-000000000001011
0000000101100110
-000000010011000
0000010001000110
-000001110000101
0000001101101011
0000010000010101
0000000110010101
0000000111110100
-000010010000011
-000010000110001
0000001001001001
-000001100000111
-000010011010110
-000001010110110
-000000111101010
-000001111111010
0000000111101100
0000000101100001
-000010000000011
-000001001110101
0000001001100100
0000000001110100
-000010001000001
0000000111110000
0000001011001100
-000001011110000
0000000011010000
