-000001000111010
-000001111111001
-000000100100110
-000010001110110
-000000100110001
0000000010110100
0000001110010101
0000000101110010
-000000110111110
-000000110011000
0000010000101011
0000001010110110
-000000100000011
0000000011011101
0000000110101111
0000010001101101
-000000111001000
0000000011001110
0000010001110101
0000010001000000
0000000000011011
-000001110010110
0000000000101111
0000000110011010
0000000111001101
0000000000011110
-000000010000110
-000010000010100
0000001100001111
0000000100001101
-000001110100011
-000001001000101
-000001010001110
0000000110111111
-000001101100111
-000001110111111
0000001010100111
0000001101101101
0000000100011011
-000000000011110
-000000011010011
0000000000001100
-000010000110111
-000001101111011
-000001111111100
0000000001010100
0000010001111011
-000001011101110
-000000111100100
0000000000001001
0000010000111001
-000000011110110
-000010000101011
0000001101100110
-000001110101000
-000001000110001
-000000010110101
0000001010001010
0000001110000010
0000001110010001
0000000100111011
0000001100010100
-000001000100001
0000000010100101
-000001100001100
-000001011111101
0000000000001001
-000001001110110
0000001110011011
0000001000100011
-000000001110111
0000000111110001
0000000001000111
0000001011001100
0000010111101001
0000000010100110
-000001001110111
-000001011001110
0000000000111100
0000000000010000
0000000110100011
0000000010010101
-000000011110000
-000000101100000
-000000001110001
0000001110111111
-000000100001011
-000001101011101
-000001011010111
0000000110001111
0000010000011101
0000010000100000
0000000000101101
0000000101111010
0000000101100101
-000001111011011
-000100011101001
-000100011010010
-000100001011111
-000011110001100
-000001100010100
0000000100011011
0000011000100000
0000100010010111
0000011101000110
0000010011010000
0000001010001000
0000010101010100
-000000011101100
-000000101011100
-000000100010010
0000000101111111
0000001001000000
0000000110011001
0000001010010111
0000000000111111
-000000000001111
0000001010101000
-000000011110101
-000001101011001
-000100000101011
-000100100000001
-000100011011001
-000101001110101
-000110111101101
-000110110100111
-000100010010010
-000100100011111
-000010101100100
-000001111111110
-000001100011101
-000000110011001
0000000011000110
0000011110101000
0000010010110001
0000010010110000
0000010111101001
-000000101000111
-000000011101101
0000010001100110
0000001001000101
-000001111101001
-000000111011011
0000000010101000
-000010010111111
-000000001001010
-000000011000101
-000001111111000
-000101010001010
-000101010010010
-000100010100011
-000001101010000
0000000000000001
-000011110101111
-000001000011011
-000010101110110
-000011001010110
-000001001110101
0000000011011010
0000000010101001
0000001000011110
0000001011001110
0000011010010110
0000110100010110
0000100100000001
0000001111010110
0000001010111100
0000001110111000
0000001100111111
-000001100010101
-000001111111100
-000001010000011
-000000110010100
-000100010010000
-000101101101000
-000100010111001
-000110010000000
-000011011101101
-000100110101011
-000010111101111
0000000100110111
-000001011011110
-000001000100000
0000001001000110
-000000111011101
-000000100011000
-000010101001111
-000001111111110
-000010110010011
-000000001100100
0000011110110101
0000100111011111
0000100110011101
0000000101001011
-000001100011000
-000000010100100
0000010001011001
-000000010011000
0000000101010110
-000000011001111
-000011000010100
-000101101001011
-000101000011100
-000100001011110
-000011000011001
-000010011010100
-000010110100100
-000101100001111
-000010101000011
-000010110100101
0000000010011100
0000001110010110
0000001100001000
0000000110111011
-000011011110111
-000010111100010
-000011100100001
-000011001010001
0000001110011101
0000011110001011
0000011100101011
0000010001010001
0000000010110100
-000000001000111
0000001001100001
0000001111010011
0000001000011101
-000100000100111
-000010110111001
-000011110010100
-000110111111110
-000100111010100
-000011000010100
-000010001100110
-000001101100100
-000100110011000
-000000101101011
-000001000111110
-000011111100110
-000101010001000
-000100101110000
-000100011100010
-000011010111001
-000100100101111
-000101001111001
-000001101111101
-000000100111011
0000101100110101
0000110001111111
0000000101010111
0000000110000010
0000001011101101
0000000010011101
0000001000100110
-000010010000111
-000011001100010
-000111101010100
-000101111101011
-000011110010111
0000001011010100
0000011001101000
0000011010110100
0000000010010100
0000010111110111
0000100001111111
-000001011001010
-001110110000100
-010000011101110
-001011010110111
-001001101001011
-000101011110001
-000101000110101
-000000101100010
-000001011001111
-000000010111100
0000000000101010
0000011000110111
0000001101001111
0000000110010001
-000000010110000
0000010000000011
-000000000010001
0000000001111011
-000011001111000
-000110010000010
-000011110010110
0000001110100001
0000100010111100
0001000110001111
0000111001010110
0001011011001001
0001011111000000
0001000000010011
-000001011000011
-001101111001001
-001111001111100
-001011010010011
-001000110000000
-000111011010111
-000101100111110
-000011001010100
-000010000111001
0000000111110100
-000001011110101
0000010001000011
-000000110110000
0000000000010110
-000000011110100
0000001010101011
-000001100000011
-000001111001000
-000100010001000
-000100001100001
0000010111001000
0001000100011011
0001011011111111
0001110100010111
0001011001101111
0001111100110001
0001101000101010
0001010101101100
0000001111001111
-000110000010110
-001000011100100
-000010101101100
-000001010111110
-000001001101010
-000001111000010
-000000111111100
-000001100000110
0000001101001001
-000000000101000
-000000000010011
-000001000000111
-000000100111110
0000001011000101
-000000000011011
-000001100101101
-000000100101000
-000011101001101
-000000101000000
0000011100110011
0001100101010100
0001101010110010
0001101011101001
0001100010000000
0001101000111110
0001110000000011
0010001000101111
0001100000110110
0000011010001010
0000011110101111
0000111101100111
0000101011100000
0000101010100101
0000101100110000
0000100111111101
0000100000000010
0000001101000001
0000000001111000
-000001010111001
0000001011011001
0000000000101110
-000001100010001
0000000101101010
-000010010100101
-000010100000110
-000010111100010
0000011101100001
0000110000111101
0001010101001011
0001010110011001
0001010100110010
0001001011000000
0001011000110011
0001110000001101
0001101101101011
0001010010110000
0000111011101000
0001011100110101
0001100001101100
0001001101111001
0000111110000110
0000101001110001
0000100010000000
0000100001110011
0000000111100010
0000000010110000
-000001101111111
-000011100000111
0000000011010100
0000000101110111
-000001001101101
0000001110000010
-000000000001100
-000000111011000
0000000100011011
0000101111101011
0001001000110011
0001010000110001
0001001000011101
0000111100110110
0001000110111010
0001111101001010
0001100001011101
0001010010000111
0001000110010101
0001001111101111
0010000100000001
0001010100010100
0000011001010101
0000011110010111
-000000000001110
0000000001010000
0000000000111100
0000000011011110
-000011111000011
-000010110111111
0000000111101100
0000001111000010
0000001111100100
-000001100110011
0000000010001111
0000001100010100
0000001110110000
0000011000011100
0000110001101110
0000101011110011
0001001011001110
0001000011000111
0001000110101101
0001010100100011
0001100000011101
0000111001101001
0000011100101110
0001001010001000
0001100111100010
0000110110001100
-000000010101000
-000001001100111
-000100111010100
-000010000110110
-000100000000010
-000010100011001
-000010011111101
-000000111110001
-000000000111010
-000001000101010
0000000100110110
-000001110100111
-000000011011111
0000000101010100
-000010011011001
-000011110110001
-000001011101000
0000011100000010
0001000010111010
0001010111110110
0001000111011101
0001011101101001
0001010000111100
0000101011011011
0000101011100110
0001001000110111
0001001000101000
0000100101111100
-000001010011100
-000110100100010
-000110111110101
-000110101001110
-000101010001011
-000010011010001
-000101010110101
-000001100101110
-000001100001110
0000010000101100
0000000100101010
0000001101110101
0000001101001110
-000100011111110
-000101010001000
-000110001110010
-000000101010010
0000011110110000
0001001100001011
0001010111010100
0001011100001000
0001101001111101
0001000010010110
0000100001110000
0000110001111011
0001000100100011
0000011110010010
0000001101111110
0000000101011001
-000011010010000
-000001110111011
-000110100000001
-000100010011100
-000110101111011
-000101010111110
-000100110010110
0000000000011110
0000000001011000
0000000010011011
0000010001001010
-000000100010111
-000010011110001
-001000010100110
-001001011110011
-000010001100011
0000001000000111
0000111100110101
0001000100100110
0001011011101010
0001001110000010
0000111100111101
0000011110111011
0000001100000110
0000001110000001
0000010001011100
-000010001001000
-000000101101000
-000010111000101
-000000011101110
-000110111011011
-000111111101000
-000100101100111
-000110000111010
-000011110001110
-000001001111010
-000010001001010
-000001111101111
0000000001001110
-000000011010000
-000010010110100
-000111111110110
-000111011110000
-000100101001000
-000001111110000
-000000001101110
0000011011001011
0000001111011011
0000011001011000
0000000010101000
-000010111001111
0000000111011001
-000000101101011
0000000110000010
-000000001110010
0000001010010000
0000001110000111
-000010000110001
-000010111001011
-000011101101100
-000100011100111
-000001110111001
-000000010010110
0000000001111100
0000001001110011
-000000001001001
0000000010011010
-000000100010010
-000011001011110
-000110110100110
-001001000110000
-000101101110101
-000101000110000
-000101111110001
-000110011011100
-000101011100100
-000011001101000
-000000000100110
0000000010111000
-000000010101100
0000010100101000
0000010010001010
0000001000110000
-000001000100100
0000000001101101
-000000010100011
-000000110101111
-000011100000100
-000010010011011
-000011110000001
0000000101110100
-000000010000000
-000000011101110
-000000110110110
0000001011111101
-000001111100110
0000000001010010
-000011101000111
-000111011010001
-000101111100110
-000111111001011
-000111011111010
-000011101000001
-000010101111111
-000001011100110
0000011000000000
0000100010110011
0000100000011011
0000000000101011
0000010010001111
0000001011000101
0000001000111011
-000010000010101
0000010010000011
0000001111000000
-000010000001000
-000010110000101
0000000000101000
-000010110001010
0000000101101000
-000001101100001
-000001111100001
0000000101000100
0000001110111111
-000001011111001
-000001010111100
-000110100001110
-001001010100011
-000101011000000
-000110000100110
-000110001001100
-000010001011001
0000000010100011
0000011011100000
0000010110111111
0000010110000011
-000000000111010
-000000110010100
0000001010000011
0000001100111110
0000011011001100
0000000001111100
0000001100111101
-000001010010101
0000000111000010
0000000101100000
-000000000101010
-000000011111011
0000001110011110
-000001001010101
-000010001001010
-000010010111000
-000000011010110
-000100010000001
-000101010110010
-000101010100110
-000101101101010
-000001100101110
-000010101000011
-000000110001010
-000001101011010
0000011010111011
0000011111100011
0000001100011001
0000001000110100
-000000111100011
-000000001000000
0000001101100000
0000111001111011
0000110111001101
0000110000000010
0000011101101110
0000010100101001
-000001000000101
0000000100010110
-000000101100010
-000010001000111
0000000001001111
0000000101000101
0000010001011101
-000000111100101
0000000110110000
-000010101111101
-000011010011010
-000001111010011
-000011010011110
-000000110000110
-000010100000101
-000000000111001
-000010011111000
-000010101101101
-000100011100010
-000000011110001
-000000101101100
0000011101010001
0000011000100101
0000101101010011
0001000000000111
0000100111010111
0000011010101001
-000000110000111
-000000010111010
-000000011101001
0000010001000111
0000010001110001
0000001010101110
0000000011101011
0000000111001100
-000000110111000
-000000110011011
-000001101010011
-000001001010110
-000010110000110
-000010101010111
-000100101000111
-000001000101011
-000101111111110
-000101111010100
-000011010010101
-000010100011101
-000010011100001
-000010110000011
-000001110111101
-000000110000111
0000010100011001
0000010100000010
0000000001010011
0000001000011000
0000010010101011
0000000011110111
-000010010011010
0000001111110000
0000000100010101
-000000001001011
0000001001111011
-000001110101001
-000010000010000
0000000111000010
0000001100001101
0000000111100101
0000001101010001
-000001010001100
0000000001110011
-000001111011101
-000011110100001
0000000001010101
-000000010101011
-000100011110110
-000010100100000
-000001111110011
-000001111011111
-000001010111100
0000001101010011
-000000111001001
0000001101000111
0000001010001100
-000001111011101
0000001000101011
0000001110011000
0000000001100001
0000000001001001
0000000100000111
0000000110010111
-000000111100110
-000001111011011
0000001011110110
-000001110110000
-000001010111000
-000010000011011
0000000010000010
0000000101101001
0000000101111000
0000000000011000
-000010000000100
-000001010111000
0000000100001111
-000001111100000
-000001111100100
-000001000101111
-000010110011111
0000000101101110
0000001010001011
-000001101011000
0000010000000010
-000000111011100
0000001101101001
-000001010100101
-000001110111011
0000010000100010
