-000010010000100
-000001010010110
-000001101100010
-000010010010001
-000000010011001
-000010000001110
0000010000100111
0000000010000101
-000001111010001
-000000011110100
0000001001110111
0000000011101001
-000001001101001
0000000001000011
-000001101110110
-000000001011111
-000000001101111
-000000010010110
-000000101100011
0000001000110000
-000000010000001
0000000101001001
0000000001010000
0000000011000010
0000000110000100
-000010010001010
0000000010010100
-000001111101001
0000001011111000
0000000011010111
-000000111111100
-000000000000011
-000010000111001
-000000001011000
-000001100110110
0000010000011111
0000000000111101
0000001010001111
0000000011100011
0000001100111000
0000000000000111
0000000010000110
0000000100010100
0000001100001011
0000010011011011
0000001011011000
0000001000110101
-000000001100100
0000001110010011
-000001100000001
0000001011110111
0000001101110000
0000000101001100
-000010001011011
0000001100110001
0000000000010001
0000001110110100
-000000011100110
0000000101101100
-000010001001000
-000001010010001
0000001100111101
0000010000110011
0000000111110001
0000001111111010
-000000101011110
-000001101010000
-000010000001111
-000000100000100
0000001000000101
0000001101110001
0000000000001100
-000001110000011
-000001110001101
0000001101011011
0000001101100000
-000001000001000
0000000001111011
0000000000011010
0000001001100001
0000001010000101
-000001100000111
0000001010110101
-000001000101001
0000001101000110
0000001110011101
0000001000101101
-000010010010011
-000010010000100
-000000110110100
-000001001011101
-000001110110100
0000010100100100
0000010100011111
0000001111111010
-000000001111011
0000010110010010
0000010101111110
0000000011110101
0000001010110011
-000001111010010
-000001011010000
-000001010010110
-000010000100001
-000010001010001
-000001011011010
0000001100100101
0000001101001111
0000010000001001
0000000101011110
0000000110101000
-000001000111000
0000000001110101
0000001001001101
-000001001100100
-000000000000111
0000000110110011
-000001101101110
0000000111100101
0000000010011111
-000000000011001
0000011110100110
0000010010110000
0000001101101000
0000001011000011
0000010100110011
-000000010000101
0000000000010100
0000000000000110
0000001001011011
0000001001000111
-000000011101111
-000011001010000
-000011001000101
-000001100011100
-000001101111011
-000010010011001
0000010000100111
0000000010101101
-000001110100001
0000010000100100
-000001110111110
-000001111011010
-000010000110001
0000000100011101
-000000101111101
0000010101111110
0000010001010011
0000010001010100
0000101111111011
0000011101100011
0000110011111011
0000011111010111
0000101111010110
0000101110011001
0000101111111110
0000101111011011
0000111001011110
0000101011111100
0000001011001000
-000011111001000
-000101001100111
-000011000110101
-000100101110110
0000000010100101
-000010001000100
-000000111110111
-000001001011111
0000001110100101
0000001100111000
0000001101001011
0000000101100000
0000000101010001
0000001100011101
0000010111000001
0000100001001011
0000011001110110
0000010101010111
0000101001111111
0000011010101100
0000010111000000
0000100011000001
0000011011111011
0000101101101101
0000101100100110
0000110011000101
0000010111100100
0000000010101100
-000000001111011
-000000011001110
-000010001011001
-000100101001100
-000100101001001
0000000100110100
-000010000110011
0000000110101010
-000001101011011
-000000000011110
-000000000111000
-000001111100111
-000000110010110
0000011101111100
0000010001110100
0000010111000110
0000011001011110
0000100111110001
0000100010111011
0000101010001000
0000010000010010
0000110000010101
0000001111101000
0000010111101111
0000011000100110
0000000000001111
0000000011100010
0000001000010011
-000001111111001
-000001011001111
0000010100100111
-000001101110110
-000011101101010
-000010010000110
-000001010111100
0000000111000000
-000001110001011
-000001110000011
0000000101011000
0000001010011010
0000001011100010
-000000011101011
0000010100100110
0000000011110010
0000010101000001
0000100100011111
0000100011000011
0000100100101010
0000010101010110
0000100010110010
0000001011100000
0000011011110001
0000100010010100
0000010110110001
0000011011011110
0000001110011111
0000011000110111
0000000110100101
0000001100100100
-000010010111110
-000100011001011
-000100010001110
-000010010111110
0000001000011101
0000010001100001
0000000000000101
-000001111100001
-000001110010110
-000010010010000
0000010111010001
0000000110101110
0000001110100000
-000000101011111
0000001001000101
0000100000000100
0000001100110100
0000010000100000
0000010001101100
0000000111000100
0000001010110010
0000101101100101
0000101100010011
0000110110011111
0000110111010101
0000011111011100
0000010111000111
0000011010000111
-000001101001010
-000110010110111
-000100111001000
0000000100001110
-000001110011010
0000001100110000
0000001001011011
-000001001101010
-000001010010110
-000001011101011
-000010011110100
-000001110001011
-000011010001011
-000010101101110
0000001110010110
0000001110001010
-000000100001000
0000001111001011
-000101100001110
-000110011001101
-001000001100110
0000000101001010
0000110000111010
0000111010010001
0000110011100100
0000011110010100
0000101100010010
0000100111101001
-000000100100001
-000100110111010
-000010111110100
-000010001101111
0000000010100110
0000000001101110
-000000101100111
-000001101100011
0000000000001101
-000001101001000
-000001010101101
-000011100000001
0000000011001001
-000000111000010
0000001101110010
0000001011110000
-000001010000001
-000011011001000
-001011101100110
-001111001001001
-001010011001000
-000100011011010
0000011011101110
0000011100100100
0000101011101101
0000011001000000
0000011011010111
0000110111010011
0000100100111000
0000000011101001
-000011010001111
-000001011001010
-000001101101100
-000001011000001
0000001111011011
-000001101011111
0000000010001001
-000011111110011
-000001111001101
-000010100110110
0000000110111111
0000001110111010
0000011001011101
0000001111111010
0000101100010001
-000000110000110
-001000111101001
-010010001011011
-001011110101010
-000001000001110
-000001100101001
0000000010010111
0000010010011001
0000001101010001
0000101101110111
0001000001010100
0000110000111110
0000011100000101
-000001000000001
-000001101011111
0000001111111011
-000001110101111
0000001001010011
0000001101010000
0000000011110110
-000011111011001
-000011011110101
0000010111000101
0000010001100111
0000010011100100
0000111101010100
0001010010101011
0001100011001000
0000001011010111
-001000110101000
-001011010000111
-001000011011010
-000010000000001
0000001001110011
0000010110110000
0000010000010100
0000001000110111
0000101101101000
0000111000010110
0000111010010100
0000110000111100
-000001010110001
-000000100010011
0000000110010111
0000001111111110
-000001100111100
0000001110001000
-000000010101001
-000011011000011
0000100010001000
0000101101101010
0001000000010001
0000111010000011
0001000100001110
0001100001000110
0001100011111100
0000011101100000
-001000001001011
-001010000101110
-000110111000010
0000011011011100
0001000011011001
0000101100011111
0000010101000101
0000011101001111
0000100000111000
0000111100010100
0001010001100011
0000011001010011
0000001111111100
0000001110111001
0000001101101010
-000000000010011
0000001001011100
-000000011100010
-000000100101011
-000000111010110
0000011101011100
0001010001001111
0001010000001111
0001100000100101
0001101101011001
0010001001110010
0001001001011001
0000000100010101
-000100011100101
-000100100010010
0000000111101100
0001000101001111
0001010001100001
0001000010011011
0000110010111000
0000011000001011
0000110001111001
0000110011101001
0000110000100000
0000011101100101
0000011100101100
0000000010110011
0000001100010100
-000000101100010
-000001011001010
0000001001001001
0000001101010110
0000000110100011
0000101011111011
0001000110001010
0001101110111000
0001110110101001
0010000001101101
0001011010011110
0000111000001010
0000001110110101
-000001101111000
-000011001101011
0000101101110111
0001001000011111
0001010110011110
0001010000101000
0000110000100010
0000110100100100
0000110111110101
0000100100100000
0000101101101001
0000010111110101
0000010011011001
0000010101000101
-000000000001011
-000001101101101
-000000011001110
-000001100010000
0000001100100100
0000000011000010
0001000100000010
0000110110001111
0001001101010001
0001001110111100
0001100001111100
0001010100011101
0001000010000010
0000100000010110
0000010101101010
0000011110110110
0000100010110010
0001001111001000
0001001100111001
0000110111110100
0000110011010001
0000100010101101
0000101111100000
0000101111001010
0000011111100010
0000100010010010
0000000011100100
-000000111010000
-000001110100100
0000001101110001
0000001101000111
-000000111011110
0000000010110101
0000001010011011
0000010101101010
0000110000011000
0001001110100101
0001000000010001
0001000100110011
0000101110010101
0001000000000100
0000101101000000
0000001100011011
0000010001010111
0000111001011010
0001010000000010
0001000001000110
0000100110011010
0000011101101110
0000100001111101
0000011110011010
0000011101111101
0000010110101000
0000101100111101
-000000001000110
0000010010100111
0000001000101101
0000001111001001
0000001100001110
0000000100010100
0000001010010000
0000010110101100
0000100101101011
0000010001000100
0000100111100000
0000100000101011
0000100000100101
0000011101100010
0000101100111101
0000101010110000
0000101011010001
0000100111110011
0000011111010101
0000101001010110
0000110000001111
0000100110010100
0000000101100011
0000011010111100
0000011111101100
0000010011100001
0000011101011101
-000000000100100
0000011001111000
0000000000010111
0000000111000100
0000001011111100
0000010010010101
-000010000000101
-000010001100101
-000000011110001
0000000001110011
0000000001111110
-000000001100101
-000001010110011
0000010100100010
0000010010111101
0000110010101110
0000111110010011
0000100111110100
0000101110110011
0000100100101011
0000011110001110
0000101011010011
0000001100011000
0000010000100010
0000011101000101
0000100101011100
0000000000000001
0000001111100000
0000001000011000
-000001000010010
0000010001000111
-000000001000111
0000001000010110
0000000110000110
0000000001110001
-000010000100000
-000000101101001
0000010010010010
-000010100011110
-000001000101101
0000000010101011
-000000010101000
0000011001100110
0001000000001110
0000110001001011
0000101110110010
0000100010101010
0000111001000000
0000011110100001
0000010110001001
0000011000000101
0000110000010001
0000000111111101
0000010101100110
0000000010001000
0000011000101100
0000001111110100
-000000100100101
-000001011110001
0000000100111000
-000010000001010
0000000101000011
-000000001000100
0000001011011011
-000001100101110
0000000101011010
-000000111001110
0000001101101101
0000010111001101
0000000101101111
0000011011101010
0000111010100011
0000111011001001
0001001101111001
0000100111000111
0000110010100011
0000100010001011
0000001000001001
0000000110010110
0000001010111001
0000011101001100
0000011110100010
0000001011011100
0000010100111110
-000001011101101
0000001001100001
-000010010011101
0000000000100010
-000001111110111
-000001001110001
0000001100100010
0000000000111101
0000000010001011
-000100011110000
-000100101011111
-000011001111001
-000010101010011
0000010010001101
0000011000101101
0000101001100011
0000111010011100
0000111011110010
0000011101001111
0000001010100001
-000001101100101
0000000010011101
0000000111010111
0000001100010110
0000000010010010
0000010011000000
0000010011011100
0000000110101111
0000010000111011
-000000111111111
0000001111011111
0000000110000011
-000001000100011
0000000011000111
-000000011100110
-000010001011000
-000001010000100
-000000100010110
-000001000101001
-000010001101000
-000010100101110
-000010010000110
-000010010101010
-000000011001011
-000010001001110
-000001100000110
0000001111000010
0000000101000000
-000001111011111
-000011110100011
-000000110010011
-000001100010010
0000000100011001
-000001110101001
-000001101000001
-000000011100010
0000001010011111
0000000011011001
-000001010000111
0000000011101000
0000000111000000
0000001011111010
0000000011110100
-000001000000001
0000000010011001
0000001010100110
0000001001111010
-000001011001010
-000011101010101
-000100101101001
-000101100100001
-000011001001010
-000100100000011
-000101100100101
-000011010011100
-000010111110110
-000011101000100
-000010101101111
-000100011100001
-000011000011111
-000001101100000
-000001101110111
0000000011010101
-000001111001100
-000000010011101
-000001101011100
-000000101011010
0000000000000011
0000000001100010
0000001010100010
0000001100011111
0000001010011001
0000001000001000
0000001100100000
-000000100010011
-000000010011101
-000010001011111
-000000000011010
-000011110011001
-000001001100001
-000100010111011
-000100010100001
-000100000110010
-000000010010101
-000011011001010
-000000011001110
-000000111000000
0000001010011111
-000010100100101
-000000001000110
0000001010100100
0000010010000101
0000001011111110
0000001101001100
-000001111100111
0000000010000010
-000010000110001
0000001010101101
-000000111000001
0000001010110111
0000000010111110
0000000100000101
0000001011111011
0000001011001010
-000001101110101
0000000111100010
0000010000011001
-000001111001010
0000000011000101
-000010011100101
-000000010010001
-000010000001101
0000000110101110
0000000100110011
0000001001111101
-000010000110101
-000001001110000
-000001101011110
0000000000010111
-000000000001010
0000001001101101
-000001101111001
-000001001010100
-000010000011010
