0000000000101111
-000001001010010
0000000001001001
-000010000000010
0000010001101110
0000000001010100
-000001111000110
-000000110011011
-000000011000111
0000000011111101
-000010000101010
-000010001001111
0000000011001110
-000001110111110
-000010000001001
-000001011010000
-000000111100110
-000000010000110
-000001001011010
-000001101011011
-000000001110110
-000000010000110
-000001111101110
0000001101000100
0000000111101000
-000010001110001
0000000110110011
-000000101101101
-000001001010101
-000001010000100
-000000111001110
0000000011000111
0000001100011000
0000000100011010
-000001110000110
-000000111101011
0000000011011011
-000010010001111
0000000111111110
0000001101011110
-000000001110010
-000000001001100
-000001111101100
0000000000100010
-000001110010001
0000001001011010
-000010001111011
-000010000110100
0000010001101100
0000001101100001
0000000100101110
0000000001011011
-000001101001100
0000010001001111
-000001111010100
-000000101000001
0000000001000100
0000001010100011
0000000111010100
0000001100100101
0000001011111111
-000001000001010
0000000110001100
-000001000010010
-000000110111101
-000001011111101
-000000000010000
-000001010100001
-000000001101011
-000000101100111
-000011001100010
-000001111100100
-000000110001101
0000000111100011
-000000100001111
-000001011100101
-000001001010101
-000000000110010
-000000100101011
-000001011001101
-000001000101010
-000000101011010
0000000110111011
-000001011001010
0000000101000110
0000000110000011
0000001101011101
-000000100001110
0000000101111010
0000001111100010
0000001111011101
-000000110110010
-000010010000111
-000001111110110
-000010000000101
0000001001010111
-000001001001111
-000010011000111
-000001001001001
-000010000011010
-000100000100000
-000001101010011
0000000100011101
-000000111011101
-000011000001111
-000000110100111
0000000010000010
0000001001011000
-000000101001111
-000000101100100
-000010000110100
0000000110101111
0000000010010010
0000000001011010
0000001101111110
0000000101101000
0000001101110110
0000000101010011
-000000001010011
-000000001010111
-000001010000011
0000000001011011
-000001100010101
-000000111111011
-000001011001000
-000011001101001
-000111000101100
-000111000101101
-000111010101011
-001000001000110
-000101100111101
-000101010111001
-000001001001010
-000011111010010
-000001000101010
-000010111001011
0000001001100101
-000001111110000
-000010000011101
0000000101101100
0000001000101001
-000000111000010
0000001100010111
0000001001101011
-000000000101100
-000001110001000
-000001001111111
0000000100001001
0000000011101111
-000010011010111
0000001110100000
0000001110100110
-000000011111100
-000010111101110
-000101111101010
-001000011110011
-001000111001110
-001100111110000
-001001001101000
-001000110001111
-000110110001110
-000110111000001
-000101101000110
-000011100101101
0000000000011011
-000000001111100
-000001100110100
-000001110010000
-000000100101001
0000010010010001
-000000111000100
0000001010101100
0000001011000010
-000000110110000
-000001010101111
-000001110011010
-000001110011010
-000000101011010
0000010111001000
0000010101110011
0000110101001110
0001001110110010
0001101001110111
0001010010011011
0001001101110101
0001000011010100
0000000001100001
-000011001010011
-000101101001111
-000101101001011
-001001111010011
-000111010110010
-000011111001011
-000000110000101
0000000011011000
0000001110100100
0000001001100001
-000000110011111
0000001111110101
0000000110100100
-000000111100111
-000000101001001
-000000011111101
-000000000110000
0000010001010010
0000011000001001
0000100010000111
0000111011100111
0001110100111101
0010000100001101
0010110100001101
0011010011010111
0010101001011000
0001101110110010
0001001011100100
0000100111011110
-000010011100000
-000110110011111
-000110001000101
-000110110001001
-000011110000001
-000010100011010
-000001110111111
-000000111110010
0000000010111111
0000001011000110
0000001001001111
0000001110010011
0000000001100111
0000010110111100
0000010110101100
0000001000110011
0000011001100110
0000010111101001
0000101000101111
0001001111000001
0001010010100011
0001101100100011
0010010100111011
0010100000100000
0001110000100000
0000111011110101
0000110110010110
0000001101101011
0000010000000111
-000000111111000
-000110000110100
-000101001110011
-000100111011000
-000011111011000
-000010100111001
-000001001011011
0000001001110101
-000001110011000
0000000110000001
-000000000100110
-000000011011001
0000000101100100
0000010011100010
0000010100101000
0000000001001111
0000010100111011
0000111010011110
0000111000010110
0001010011011010
0001000011101000
0001101101100010
0001011101111010
0000110100010011
0000101000110110
0000010011111111
0000100111000110
0000001111000110
0000000011100010
-000011101000000
-000101101101101
-000100011001111
-000011101100011
-000000011110111
0000000101001101
-000000110001111
0000000010101110
-000000000011010
0000010000101110
0000000011110101
0000001100111111
0000010000011110
0000011000011100
0000010000011101
0000011111010001
0000010011001100
0000110100010011
0000000001000101
0000001010011010
0000101001001011
0000011001111111
0000100101001110
0000100000001011
0001000100001000
0000110001010110
0000101100001111
0000110110111010
0000000110011000
-000001001110110
-000100010100000
-000001010011000
0000001000011100
0000001010011100
-000000011010111
-000001001010011
0000000101111110
0000000101100000
0000100011101110
0000101010001010
0000011011000100
0000011001101001
-000000000011010
0000001011011000
0000001010100001
0000001000001001
-000110011101110
-000100110101001
-000001100010000
0000011010011010
0000101111010101
0000111001111110
0001010011010001
0001011010100111
0001011001001011
0001000100010110
0000001101011100
-000010100110111
-000100010011101
0000000010111100
-000001100110111
-000000110101010
-000000000001101
-000000010111011
0000000101001011
0000011100111110
0000100010111010
0000100100001100
0000001001110000
-000000010110010
0000001000001000
-000010010111001
-000010000100101
-001010100101000
-001111101001001
-001100101110100
-000001000011100
0000100001011100
0000111000010101
0001010100010000
0001010011110111
0001100111111010
0001000111100110
0000011100001110
-000001010110100
-000010010001010
-000000000001101
-000000100000011
-000000001110001
0000000110100110
-000010001111101
-000001101100010
0000001011000011
0000000001101101
0000001110010000
0000000001110011
0000000111000011
-000000000100100
-000001100000110
-000011010010000
-001000110001100
-001011001011101
-001101010000010
-000111100111110
0000001001111101
0001000011001001
0001001101111011
0001001000011101
0001001100001001
0001011000010001
0001000110110011
0000011111101111
-000010010100111
-000011101110100
-000010111010100
0000010000100111
-000001111011011
-000001111111110
0000010000111001
0000000011010110
-000000100001111
0000000000011000
0000100101001010
-000000100110101
0000000110110000
-000100000111100
-000001100011010
-000101110001000
-001000011101100
-001011110010110
-001001111010010
-000010001010000
-000000100111101
0000011100010101
0001001001101111
0001010110000110
0000110100100100
0000101000101001
0000010100001100
-000000010001010
-000001000000111
-000010111011001
-000000101000101
-000000110110101
-000001100001110
0000001000111100
-000000111001100
0000000100101000
0000000100011111
-000000110110011
0000000110100110
-000010010011110
-000010000111111
-000011011101111
-000011001101011
-000010000011101
-000011101110010
-000100010101001
-000110001101011
-000101000110100
-000101011101000
-000000101011010
0000101011111111
0001010101100010
0000101110011011
0000100000111101
0000011101001000
0000000101010110
-000100001001001
-000100100000101
-000001100101010
-000000101000110
-000001100000011
0000001101000101
0000001010010100
0000000010010000
-000010001100011
0000000011010010
0000001111111111
0000001011100110
-000010101110001
-000000101100000
-000000010001000
0000000111010100
-000000001010001
-000010010011110
-000010000101101
-000110100011010
-000110000111001
-000001111001000
0000110111000111
0000110111101100
0000100100110101
-000001001101001
-000001101100000
-000011011011010
-000000011111011
-000011101100110
-000010001111000
0000000010111001
0000001000111101
-000000100001010
-000000101010000
-000000100110011
0000001010110001
-000000100111100
0000001000100111
-000010000110110
-000010111111010
0000001100010001
0000001011111111
0000011100100001
-000000001001111
0000001001000000
-000000000100000
-000010011101000
-000011010100101
0000001000101101
0000010011111110
0000001111111100
0000000000000111
-000000001001100
-000001101111000
-000000001000000
-000010100110010
-000011001001110
0000000111101001
0000011000111010
0000010100001001
-000010000010111
-000001011111001
0000000010010110
-000000001111010
-000010000100010
-000010000001110
-000001111001101
-000001100010000
-000001101111100
-000010101101111
-000100010011001
-000010100001011
-000010101110000
-000010010111110
-000010100100010
0000010001110101
0000001101101000
-000000111001100
-000001100010100
0000000001110000
-000000110100111
-000010100001000
-000001111011001
-000001101100011
0000001000001101
-000000101001001
0000011010011110
0000000000001000
0000001101010100
-000000100111010
0000010001100010
0000000001100011
-000000100100010
-000000110001010
-000100010010000
-000010011000000
-000010111110000
-000110011101101
-000100011000101
-000110111000101
-000101001101010
-000010101111110
-000000010001101
-000010011011000
-000100011000010
-000011101100110
-000011000000000
-000100101111001
-000000000001110
0000000110001000
-000001000001101
0000001010100100
-000000111110101
0000011101011001
-000000101000010
0000000011010111
-000001100111010
0000001110101011
0000000101011111
0000001110010101
0000001100110000
-000010101101011
-000000010000000
-000011000001010
-000100110111010
-000110111011111
-000100010000010
-000110101000010
-000101111101101
-000111001111000
-000101000010100
-000011010111111
-000101000111011
-000101100101110
-000101101001011
-000110010011101
-000001001000110
-000011101111101
-000011010111110
-000010011001110
0000001111010110
-000000001011000
-000001010110011
-000010000011000
-000010010000110
0000000001111000
0000000101101000
-000010000101110
-000000111111111
-000001011101001
-000000111101100
-000110101001100
-000101101010101
-000110001010010
-000010011110000
-000110010011000
-000111001100100
-000101100011111
-000011000111011
-000110101100111
-000111110101010
-000110001000100
-000101010011111
-000110011001101
-000100011010000
0000000000000110
-000001100000101
-000010001001000
0000000110110111
0000001010010010
0000010100011110
-000001111011011
0000000010101110
-000000001101001
0000010000110000
0000001001001110
-000001001101010
0000000000010000
0000001000000011
-000100000110100
-000010001101101
-000011100110000
-000001110101110
-000000001111000
-000011110001101
-000101001010111
-000110000010110
-000011010111010
-000100111100111
-000011110111100
-000101011111011
-000101100000000
-000011101000000
-000001010100100
-000001111001111
0000010110001011
0000001111100110
0000001111000100
-000001000011000
-000000000111000
0000000111110100
0000000000000110
0000010000001000
-000000011111000
-000010001011011
-000000110001101
0000000001011001
0000010000110001
0000000011010010
0000000110111000
-000010010010100
-000010100011001
-000100001101100
-000010000000001
-000110010001001
-000101100111000
-000110001100100
-000011100100010
-000011101100101
-000011001100010
-000001010010001
0000000110101001
0000001111010110
0000010010011011
-000001100000100
0000010010101000
0000000100111101
-000001110010001
-000001011110000
0000001111001111
-000000011110001
-000000100101001
-000000011001100
-000001010000101
0000010101100001
0000010010111111
0000011001101101
0000011010101100
0000010000110001
0000011011010110
0000001100100110
0000010100000001
0000000011100110
-000001101111110
-000001001100011
-000001001011001
0000010100000001
0000010110010011
0000000110000011
0000001001010010
0000000110110000
0000001111010111
0000000011101100
-000000010000100
0000000010101010
-000001101001101
-000000001101110
-000010001010010
-000001111101010
-000001001100111
-000001101111011
-000000110111001
0000011111000000
0000011111111100
0000100100000000
0000111110011111
0001000100011111
0001000000111001
0001001010001000
0001001111110101
0001001110000000
0001001110010000
0000110100101110
0000110110111101
0001000110110010
0000111110010110
0000101001010101
0000011111000000
0000000101011001
0000000011100011
0000001101000111
0000010001110011
-000001111111111
-000000011000010
-000001000111010
-000001101110110
0000000010001100
0000010000100111
-000010001010101
0000001010111100
-000001000100001
0000010000100101
0000001110101010
0000100010111100
0000001111111100
0000101000010011
0000011010010100
0000111010110111
0000100100001001
0001000110011111
0000110100000101
0000011101110101
0000100001001101
0000100010100111
0000011110101001
0000001110111101
0000000110010100
-000000010110001
-000001011010001
0000000000110100
0000001100010000
0000001110100010
-000000110000111
-000001010001100
-000000100001001
-000000000101000
0000010010001111
0000001111011111
0000001010111011
-000001110011000
0000001001111101
-000000100000010
-000001010111110
-000001001111111
0000001001100011
0000001100111010
-000000101110001
0000010111111011
-000000110101111
0000001010010011
0000001111100101
0000000101001111
0000010000000100
0000001011110000
-000000110101110
-000000111000101
-000000110010110
0000000101110010
-000000100111100
-000001010000110
-000001011110000
